<unk>	0
<s>	0
</s>	0
<0x00>	0
<0x01>	0
<0x02>	0
<0x03>	0
<0x04>	0
<0x05>	0
<0x06>	0
<0x07>	0
<0x08>	0
<0x09>	0
<0x0A>	0
<0x0B>	0
<0x0C>	0
<0x0D>	0
<0x0E>	0
<0x0F>	0
<0x10>	0
<0x11>	0
<0x12>	0
<0x13>	0
<0x14>	0
<0x15>	0
<0x16>	0
<0x17>	0
<0x18>	0
<0x19>	0
<0x1A>	0
<0x1B>	0
<0x1C>	0
<0x1D>	0
<0x1E>	0
<0x1F>	0
<0x20>	0
<0x21>	0
<0x22>	0
<0x23>	0
<0x24>	0
<0x25>	0
<0x26>	0
<0x27>	0
<0x28>	0
<0x29>	0
<0x2A>	0
<0x2B>	0
<0x2C>	0
<0x2D>	0
<0x2E>	0
<0x2F>	0
<0x30>	0
<0x31>	0
<0x32>	0
<0x33>	0
<0x34>	0
<0x35>	0
<0x36>	0
<0x37>	0
<0x38>	0
<0x39>	0
<0x3A>	0
<0x3B>	0
<0x3C>	0
<0x3D>	0
<0x3E>	0
<0x3F>	0
<0x40>	0
<0x41>	0
<0x42>	0
<0x43>	0
<0x44>	0
<0x45>	0
<0x46>	0
<0x47>	0
<0x48>	0
<0x49>	0
<0x4A>	0
<0x4B>	0
<0x4C>	0
<0x4D>	0
<0x4E>	0
<0x4F>	0
<0x50>	0
<0x51>	0
<0x52>	0
<0x53>	0
<0x54>	0
<0x55>	0
<0x56>	0
<0x57>	0
<0x58>	0
<0x59>	0
<0x5A>	0
<0x5B>	0
<0x5C>	0
<0x5D>	0
<0x5E>	0
<0x5F>	0
<0x60>	0
<0x61>	0
<0x62>	0
<0x63>	0
<0x64>	0
<0x65>	0
<0x66>	0
<0x67>	0
<0x68>	0
<0x69>	0
<0x6A>	0
<0x6B>	0
<0x6C>	0
<0x6D>	0
<0x6E>	0
<0x6F>	0
<0x70>	0
<0x71>	0
<0x72>	0
<0x73>	0
<0x74>	0
<0x75>	0
<0x76>	0
<0x77>	0
<0x78>	0
<0x79>	0
<0x7A>	0
<0x7B>	0
<0x7C>	0
<0x7D>	0
<0x7E>	0
<0x7F>	0
<0x80>	0
<0x81>	0
<0x82>	0
<0x83>	0
<0x84>	0
<0x85>	0
<0x86>	0
<0x87>	0
<0x88>	0
<0x89>	0
<0x8A>	0
<0x8B>	0
<0x8C>	0
<0x8D>	0
<0x8E>	0
<0x8F>	0
<0x90>	0
<0x91>	0
<0x92>	0
<0x93>	0
<0x94>	0
<0x95>	0
<0x96>	0
<0x97>	0
<0x98>	0
<0x99>	0
<0x9A>	0
<0x9B>	0
<0x9C>	0
<0x9D>	0
<0x9E>	0
<0x9F>	0
<0xA0>	0
<0xA1>	0
<0xA2>	0
<0xA3>	0
<0xA4>	0
<0xA5>	0
<0xA6>	0
<0xA7>	0
<0xA8>	0
<0xA9>	0
<0xAA>	0
<0xAB>	0
<0xAC>	0
<0xAD>	0
<0xAE>	0
<0xAF>	0
<0xB0>	0
<0xB1>	0
<0xB2>	0
<0xB3>	0
<0xB4>	0
<0xB5>	0
<0xB6>	0
<0xB7>	0
<0xB8>	0
<0xB9>	0
<0xBA>	0
<0xBB>	0
<0xBC>	0
<0xBD>	0
<0xBE>	0
<0xBF>	0
<0xC0>	0
<0xC1>	0
<0xC2>	0
<0xC3>	0
<0xC4>	0
<0xC5>	0
<0xC6>	0
<0xC7>	0
<0xC8>	0
<0xC9>	0
<0xCA>	0
<0xCB>	0
<0xCC>	0
<0xCD>	0
<0xCE>	0
<0xCF>	0
<0xD0>	0
<0xD1>	0
<0xD2>	0
<0xD3>	0
<0xD4>	0
<0xD5>	0
<0xD6>	0
<0xD7>	0
<0xD8>	0
<0xD9>	0
<0xDA>	0
<0xDB>	0
<0xDC>	0
<0xDD>	0
<0xDE>	0
<0xDF>	0
<0xE0>	0
<0xE1>	0
<0xE2>	0
<0xE3>	0
<0xE4>	0
<0xE5>	0
<0xE6>	0
<0xE7>	0
<0xE8>	0
<0xE9>	0
<0xEA>	0
<0xEB>	0
<0xEC>	0
<0xED>	0
<0xEE>	0
<0xEF>	0
<0xF0>	0
<0xF1>	0
<0xF2>	0
<0xF3>	0
<0xF4>	0
<0xF5>	0
<0xF6>	0
<0xF7>	0
<0xF8>	0
<0xF9>	0
<0xFA>	0
<0xFB>	0
<0xFC>	0
<0xFD>	0
<0xFE>	0
<0xFF>	0
▁t	-0
▁a	-1
in	-2
he	-3
re	-4
on	-5
er	-6
▁the	-7
▁s	-8
at	-9
▁c	-10
or	-11
an	-12
is	-13
nd	-14
ou	-15
es	-16
it	-17
▁w	-18
en	-19
▁p	-20
ing	-21
▁f	-22
▁o	-23
▁m	-24
▁and	-25
▁b	-26
al	-27
▁to	-28
▁in	-29
▁d	-30
le	-31
ar	-32
▁of	-33
ic	-34
ion	-35
ed	-36
ro	-37
as	-38
▁h	-39
▁th	-40
▁e	-41
ct	-42
▁y	-43
om	-44
▁l	-45
▁you	-46
ent	-47
us	-48
▁re	-49
ve	-50
▁n	-51
▁A	-52
et	-53
▁is	-54
▁T	-55
▁I	-56
il	-57
im	-58
▁g	-59
ow	-60
el	-61
ist	-62
st	-63
id	-64
▁for	-65
ce	-66
am	-67
ch	-68
ant	-69
▁be	-70
▁that	-71
ol	-72
ot	-73
ation	-74
ss	-75
ut	-76
ly	-77
ig	-78
▁st	-79
ay	-80
▁on	-81
▁it	-82
if	-83
ith	-84
▁pro	-85
▁can	-86
ul	-87
ver	-88
▁con	-89
ra	-90
▁an	-91
od	-92
▁S	-93
▁or	-94
▁with	-95
ur	-96
▁U	-97
un	-98
▁as	-99
▁are	-100
ir	-101
▁us	-102
▁The	-103
▁C	-104
se	-105
ate	-106
ge	-107
▁ex	-108
▁com	-109
pe	-110
ke	-111
um	-112
ad	-113
ld	-114
▁wh	-115
ers	-116
▁al	-117
qu	-118
ser	-119
her	-120
ssist	-121
ure	-122
▁de	-123
▁your	-124
ssistant	-125
ter	-126
▁H	-127
ess	-128
▁Assistant	-129
▁v	-130
ri	-131
ab	-132
▁he	-133
▁User	-134
em	-135
op	-136
▁W	-137
ere	-138
ore	-139
▁su	-140
out	-141
ity	-142
▁P	-143
ain	-144
pl	-145
ck	-146
ould	-147
th	-148
est	-149
▁ne	-150
igh	-151
▁1	-152
▁-	-153
pt	-154
▁ha	-155
ment	-156
ort	-157
▁M	-158
ive	-159
ill	-160
and	-161
ies	-162
ect	-163
▁r	-164
▁im	-165
▁"	-166
▁ch	-167
nt	-168
▁le	-169
▁B	-170
▁(	-171
ions	-172
ome	-173
pp	-174
rom	-175
▁by	-176
▁D	-177
▁have	-178
▁se	-179
ine	-180
▁comp	-181
iz	-182
ight	-183
▁F	-184
per	-185
ial	-186
▁E	-187
iv	-188
▁not	-189
▁en	-190
▁me	-191
▁ma	-192
▁Th	-193
▁sh	-194
age	-195
▁pl	-196
▁R	-197
ical	-198
ide	-199
▁from	-200
▁wor	-201
oc	-202
▁ab	-203
ud	-204
our	-205
ame	-206
ther	-207
▁u	-208
▁imp	-209
art	-210
all	-211
▁G	-212
act	-213
▁int	-214
▁2	-215
``	-216
os	-217
ell	-218
▁we	-219
▁L	-220
og	-221
▁O	-222
ust	-223
▁ad	-224
▁=	-225
orm	-226
are	-227
ile	-228
ich	-229
▁this	-230
cl	-231
▁at	-232
▁k	-233
▁more	-234
able	-235
▁cont	-236
ult	-237
▁li	-238
▁their	-239
▁res	-240
ire	-241
ry	-242
▁other	-243
▁do	-244
▁In	-245
▁This	-246
ations	-247
rou	-248
ard	-249
ff	-250
▁N	-251
ind	-252
vel	-253
form	-254
king	-255
▁pre	-256
ag	-257
ction	-258
ie	-259
ple	-260
▁which	-261
▁te	-262
cess	-263
▁use	-264
ue	-265
▁some	-266
ang	-267
ance	-268
--	-269
ase	-270
lp	-271
▁whe	-272
▁cre	-273
ack	-274
▁un	-275
ces	-276
so	-277
low	-278
▁will	-279
ime	-280
▁Y	-281
▁help	-282
ence	-283
ble	-284
gh	-285
▁was	-286
▁3	-287
▁qu	-288
ep	-289
▁It	-290
▁such	-291
iff	-292
▁sc	-293
ans	-294
▁spe	-295
▁cl	-296
ous	-297
du	-298
ost	-299
▁go	-300
ach	-301
▁but	-302
▁has	-303
ong	-304
ata	-305
ast	-306
▁Wh	-307
oo	-308
00	-309
ated	-310
▁if	-311
▁fe	-312
ks	-313
▁any	-314
▁ac	-315
▁so	-316
▁sy	-317
ite	-318
▁may	-319
▁diff	-320
av	-321
ary	-322
▁man	-323
ass	-324
ign	-325
▁they	-326
ac	-327
▁mod	-328
ual	-329
▁would	-330
ific	-331
ory	-332
ber	-333
▁j	-334
ap	-335
▁tra	-336
▁about	-337
▁also	-338
now	-339
clud	-340
ace	-341
ice	-342
▁comm	-343
ode	-344
ition	-345
ject	-346
▁need	-347
nder	-348
ip	-349
▁up	-350
▁out	-351
▁like	-352
int	-353
▁ar	-354
stem	-355
xt	-356
▁my	-357
ru	-358
▁How	-359
▁data	-360
▁prov	-361
one	-362
▁ro	-363
▁how	-364
▁dis	-365
▁includ	-366
▁its	-367
▁import	-368
▁there	-369
▁ev	-370
▁po	-371
▁fun	-372
▁them	-373
▁cons	-374
ors	-375
▁exam	-376
▁used	-377
▁know	-378
ens	-379
▁time	-380
ient	-381
▁per	-382
```	-383
▁using	-384
▁*	-385
▁system	-386
etw	-387
end	-388
lo	-389
▁could	-390
▁spec	-391
▁sp	-392
▁```	-393
put	-394
▁differe	-395
▁4	-396
ating	-397
ail	-398
▁one	-399
ular	-400
▁all	-401
▁over	-402
ari	-403
▁tr	-404
▁You	-405
▁des	-406
▁new	-407
ft	-408
ress	-409
▁into	-410
ram	-411
ount	-412
ater	-413
ely	-414
▁ser	-415
▁If	-416
▁ta	-417
▁make	-418
ning	-419
ics	-420
▁1.	-421
led	-422
velop	-423
▁add	-424
ub	-425
▁St	-426
▁code	-427
ful	-428
erm	-429
▁inter	-430
ize	-431
▁am	-432
▁What	-433
ild	-434
▁these	-435
▁way	-436
▁what	-437
ates	-438
▁col	-439
ature	-440
com	-441
▁num	-442
▁pr	-443
ally	-444
▁under	-445
▁5	-446
ings	-447
ord	-448
▁app	-449
pen	-450
▁ind	-451
▁gen	-452
aus	-453
▁ke	-454
▁em	-455
ons	-456
▁his	-457
▁ap	-458
ible	-459
▁part	-460
▁prog	-461
ree	-462
▁Here	-463
ick	-464
▁ty	-465
▁who	-466
▁develop	-467
eth	-468
▁pe	-469
▁example	-470
elf	-471
ove	-472
ased	-473
con	-474
ish	-475
▁ob	-476
▁function	-477
▁set	-478
ents	-479
▁sim	-480
▁inv	-481
very	-482
ility	-483
▁requ	-484
olog	-485
vers	-486
▁eff	-487
▁pers	-488
▁act	-489
▁different	-490
ll	-491
rit	-492
lect	-493
ments	-494
ia	-495
▁model	-496
▁work	-497
▁hum	-498
▁inst	-499
▁val	-500
▁each	-501
▁bu	-502
ower	-503
▁should	-504
ever	-505
row	-506
▁important	-507
ities	-508
rib	-509
▁play	-510
angu	-511
▁lear	-512
▁many	-513
les	-514
ound	-515
▁rel	-516
▁2.	-517
▁when	-518
▁str	-519
▁than	-520
ange	-521
▁ph	-522
▁process	-523
als	-524
▁vari	-525
ose	-526
get	-527
tain	-528
▁3.	-529
▁fol	-530
ark	-531
urn	-532
een	-533
ript	-534
▁langu	-535
ict	-536
▁exper	-537
rough	-538
ough	-539
pend	-540
▁create	-541
tern	-542
ph	-543
▁get	-544
cre	-545
ear	-546
▁inform	-547
ath	-548
cur	-549
▁gener	-550
round	-551
ative	-552
▁form	-553
▁program	-554
▁where	-555
etween	-556
ak	-557
▁expl	-558
▁reg	-559
▁sm	-560
ov	-561
ract	-562
▁between	-563
res	-564
yth	-565
ise	-566
▁want	-567
ience	-568
▁tw	-569
▁provide	-570
ook	-571
▁det	-572
ys	-573
▁cal	-574
▁def	-575
▁For	-576
oth	-577
chn	-578
wn	-579
▁`	-580
ople	-581
▁person	-582
▁However	-583
ious	-584
stand	-585
ne	-586
ause	-587
▁been	-588
▁off	-589
irst	-590
ential	-591
te	-592
▁AI	-593
▁bec	-594
gg	-595
ware	-596
its	-597
ting	-598
ps	-599
▁follow	-600
ten	-601
----	-602
▁Ch	-603
▁through	-604
▁most	-605
ood	-606
▁while	-607
▁then	-608
▁comple	-609
ices	-610
ib	-611
▁produ	-612
▁sol	-613
()	-614
own	-615
▁information	-616
reat	-617
▁comput	-618
ython	-619
▁techn	-620
ages	-621
▁att	-622
",	-623
▁high	-624
▁people	-625
plic	-626
▁no	-627
ays	-628
▁start	-629
▁ra	-630
▁world	-631
▁require	-632
▁two	-633
▁quest	-634
cept	-635
▁4.	-636
▁To	-637
anc	-638
▁co	-639
▁game	-640
▁list	-641
▁understand	-642
▁mat	-643
▁find	-644
ds	-645
ms	-646
▁cur	-647
▁[	-648
▁specific	-649
▁che	-650
pport	-651
▁dist	-652
▁lar	-653
erg	-654
▁including	-655
ruct	-656
▁number	-657
▁resp	-658
▁trans	-659
iew	-660
▁language	-661
▁Can	-662
▁consid	-663
ng	-664
▁adv	-665
▁inf	-666
ues	-667
enc	-668
pect	-669
ob	-670
▁6	-671
▁good	-672
▁av	-673
▁rem	-674
▁power	-675
▁well	-676
▁rep	-677
▁char	-678
//	-679
ife	-680
▁ret	-681
▁first	-682
▁opt	-683
▁ag	-684
▁fl	-685
▁sa	-686
▁'	-687
ness	-688
ves	-689
hes	-690
▁pol	-691
ized	-692
ality	-693
▁allow	-694
iqu	-695
▁pop	-696
lease	-697
▁file	-698
ving	-699
▁0	-700
▁own	-701
▁Re	-702
▁sk	-703
▁sign	-704
▁poss	-705
▁Ad	-706
rite	-707
▁web	-708
▁rec	-709
arch	-710
▁main	-711
fore	-712
ural	-713
▁just	-714
ered	-715
uring	-716
▁human	-717
ork	-718
),	-719
▁ref	-720
▁sub	-721
▁does	-722
▁As	-723
▁pot	-724
▁were	-725
▁key	-726
▁min	-727
ically	-728
▁perform	-729
▁fact	-730
ake	-731
▁hand	-732
▁exp	-733
▁only	-734
ution	-735
▁build	-736
ved	-737
ian	-738
▁run	-739
▁plan	-740
▁step	-741
▁depend	-742
ety	-743
▁There	-744
ify	-745
▁lo	-746
ines	-747
▁med	-748
▁meth	-749
alth	-750
▁typ	-751
▁design	-752
hen	-753
▁text	-754
▁ass	-755
▁being	-756
ink	-757
▁fi	-758
cript	-759
▁object	-760
▁provid	-761
nce	-762
▁back	-763
▁impro	-764
▁light	-765
▁soc	-766
read	-767
▁take	-768
▁commun	-769
▁our	-770
▁cor	-771
dition	-772
▁train	-773
);	-774
▁dec	-775
▁try	-776
▁open	-777
gor	-778
▁result	-779
ty	-780
▁see	-781
▁lead	-782
).	-783
eng	-784
▁best	-785
der	-786
▁He	-787
▁const	-788
ade	-789
iron	-790
ron	-791
any	-792
▁long	-793
ited	-794
▁5.	-795
▁fil	-796
▁class	-797
ples	-798
▁small	-799
▁method	-800
▁had	-801
ming	-802
▁gra	-803
ures	-804
oy	-805
▁bel	-806
▁input	-807
ivid	-808
▁appro	-809
ied	-810
▁br	-811
▁ide	-812
ource	-813
gan	-814
uch	-815
▁let	-816
▁complex	-817
▁gu	-818
▁include	-819
▁pat	-820
▁down	-821
ef	-822
▁charact	-823
▁Un	-824
▁prev	-825
▁name	-826
▁eng	-827
▁based	-828
red	-829
▁loc	-830
▁acc	-831
▁support	-832
▁often	-833
▁her	-834
▁point	-835
ric	-836
▁20	-837
▁Pro	-838
▁water	-839
old	-840
▁both	-841
▁aut	-842
▁ext	-843
ody	-844
line	-845
▁conf	-846
gorith	-847
lement	-848
ern	-849
▁These	-850
ily	-851
cul	-852
▁la	-853
kes	-854
ident	-855
▁life	-856
▁possible	-857
▁stud	-858
▁proper	-859
▁art	-860
ology	-861
▁every	-862
viron	-863
▁year	-864
▁popular	-865
atures	-866
ather	-867
▁They	-868
▁project	-869
▁fin	-870
▁incre	-871
▁algorith	-872
br	-873
sw	-874
up	-875
▁An	-876
▁known	-877
rent	-878
▁invol	-879
irect	-880
▁applic	-881
self	-882
▁even	-883
ertain	-884
ources	-885
▁effect	-886
nect	-887
▁proble	-888
ton	-889
▁don	-890
▁large	-891
li	-892
fter	-893
▁sur	-894
▁soft	-895
▁term	-896
ization	-897
▁learning	-898
][	-899
▁eas	-900
▁ent	-901
▁user	-902
etter	-903
▁potential	-904
▁Ex	-905
▁equ	-906
▁ens	-907
▁tool	-908
▁bo	-909
ribut	-910
▁health	-911
ism	-912
ergy	-913
▁few	-914
▁learn	-915
hip	-916
ward	-917
ional	-918
▁return	-919
ars	-920
eg	-921
ets	-922
▁We	-923
▁ins	-924
▁tem	-925
▁19	-926
ives	-927
other	-928
▁bl	-929
▁di	-930
▁beh	-931
▁might	-932
▁environ	-933
▁contro	-934
▁tas	-935
▁writ	-936
▁Con	-937
▁Open	-938
▁oper	-939
hem	-940
lic	-941
▁count	-942
▁partic	-943
lu	-944
▁answ	-945
▁better	-946
▁without	-947
ts	-948
):	-949
▁mus	-950
▁making	-951
▁par	-952
▁around	-953
▁top	-954
tt	-955
▁vis	-956
▁10	-957
▁right	-958
▁consider	-959
ond	-960
ually	-961
comm	-962
rain	-963
▁real	-964
▁development	-965
▁pur	-966
▁type	-967
ases	-968
▁much	-969
ax	-970
▁feel	-971
▁serv	-972
▁she	-973
▁value	-974
▁el	-975
ocus	-976
▁end	-977
▁mult	-978
ividual	-979
▁energy	-980
▁cle	-981
erest	-982
▁mem	-983
▁prot	-984
▁made	-985
▁prom	-986
**	-987
iss	-988
▁Python	-989
▁Sure	-990
▁give	-991
▁sever	-992
oid	-993
▁here	-994
▁mean	-995
▁following	-996
ability	-997
▁improve	-998
▁individual	-999
hed	-1000
▁Some	-1001
▁redu	-1002
▁software	-1003
arm	-1004
riend	-1005
ational	-1006
▁ve	-1007
▁belie	-1008
▁met	-1009
▁because	-1010
▁i	-1011
▁before	-1012
▁hist	-1013
▁sure	-1014
▁pos	-1015
▁several	-1016
▁systems	-1017
ex	-1018
▁netw	-1019
▁chang	-1020
inu	-1021
▁contain	-1022
▁same	-1023
▁interest	-1024
▁ed	-1025
▁cent	-1026
▁disc	-1027
0,	-1028
ank	-1029
▁**	-1030
ense	-1031
▁hard	-1032
..	-1033
dit	-1034
▁still	-1035
▁common	-1036
▁mon	-1037
▁environment	-1038
▁elect	-1039
▁experience	-1040
▁self	-1041
▁connect	-1042
▁bre	-1043
▁state	-1044
▁computer	-1045
ext	-1046
ote	-1047
▁iss	-1048
▁access	-1049
sc	-1050
ique	-1051
▁som	-1052
▁again	-1053
▁command	-1054
ner	-1055
ven	-1056
itive	-1057
▁great	-1058
ren	-1059
▁De	-1060
arth	-1061
atch	-1062
▁cult	-1063
="	-1064
ock	-1065
ately	-1066
▁chall	-1067
▁range	-1068
▁direct	-1069
eld	-1070
uc	-1071
mer	-1072
▁car	-1073
ustom	-1074
▁pass	-1075
▁steps	-1076
▁impact	-1077
ists	-1078
▁blo	-1079
▁happ	-1080
▁keep	-1081
▁questions	-1082
bers	-1083
▁able	-1084
indow	-1085
▁ensure	-1086
ier	-1087
▁explain	-1088
apt	-1089
▁pract	-1090
▁answer	-1091
ins	-1092
▁sum	-1093
▁Is	-1094
ince	-1095
▁struct	-1096
▁Al	-1097
icult	-1098
▁grow	-1099
ries	-1100
▁stre	-1101
▁avail	-1102
▁print	-1103
▁sw	-1104
ency	-1105
▁day	-1106
▁lim	-1107
▁write	-1108
."	-1109
ways	-1110
▁current	-1111
imes	-1112
▁programming	-1113
ead	-1114
▁prof	-1115
▁focus	-1116
ave	-1117
▁level	-1118
ills	-1119
▁too	-1120
▁line	-1121
ted	-1122
ames	-1123
▁air	-1124
▁control	-1125
ences	-1126
▁phys	-1127
▁found	-1128
-1	-1129
▁free	-1130
▁product	-1131
▁And	-1132
▁lay	-1133
yle	-1134
▁during	-1135
▁effic	-1136
▁calcul	-1137
air	-1138
iness	-1139
ument	-1140
▁mark	-1141
▁read	-1142
▁difficult	-1143
▁dev	-1144
▁pri	-1145
▁signific	-1146
ior	-1147
▁concept	-1148
ared	-1149
to	-1150
▁must	-1151
▁output	-1152
ec	-1153
err	-1154
inal	-1155
play	-1156
▁very	-1157
▁webs	-1158
ci	-1159
ale	-1160
▁//	-1161
onse	-1162
ray	-1163
cial	-1164
▁needs	-1165
rect	-1166
ggest	-1167
▁organ	-1168
▁custom	-1169
▁Com	-1170
ublic	-1171
▁multi	-1172
day	-1173
▁bas	-1174
▁mach	-1175
▁after	-1176
▁cap	-1177
ething	-1178
▁fam	-1179
conom	-1180
▁amount	-1181
▁factors	-1182
▁performance	-1183
ix	-1184
til	-1185
▁anal	-1186
▁show	-1187
▁those	-1188
ilities	-1189
▁others	-1190
ced	-1191
pro	-1192
view	-1193
thing	-1194
▁personal	-1195
bo	-1196
ention	-1197
▁move	-1198
▁social	-1199
▁bi	-1200
▁suggest	-1201
▁libr	-1202
▁simple	-1203
ined	-1204
▁ris	-1205
▁cell	-1206
aterial	-1207
▁But	-1208
▁determ	-1209
▁various	-1210
20	-1211
not	-1212
nces	-1213
--------	-1214
▁addition	-1215
▁features	-1216
▁available	-1217
("	-1218
▁Do	-1219
▁mess	-1220
ooking	-1221
ilar	-1222
▁rese	-1223
ava	-1224
ator	-1225
▁Use	-1226
▁enc	-1227
▁him	-1228
▁food	-1229
▁called	-1230
▁though	-1231
▁character	-1232
▁significant	-1233
▁always	-1234
▁question	-1235
',	-1236
less	-1237
://	-1238
tle	-1239
ee	-1240
yn	-1241
▁vers	-1242
commend	-1243
ug	-1244
▁So	-1245
▁behav	-1246
▁x	-1247
pos	-1248
▁When	-1249
ering	-1250
▁pres	-1251
▁works	-1252
▁things	-1253
▁resources	-1254
▁pattern	-1255
▁examples	-1256
ash	-1257
▁6.	-1258
▁training	-1259
atic	-1260
▁friend	-1261
▁script	-1262
raph	-1263
▁story	-1264
▁change	-1265
▁test	-1266
de	-1267
rame	-1268
▁conc	-1269
▁recommend	-1270
▁_	-1271
▁Sp	-1272
ross	-1273
▁dem	-1274
▁skills	-1275
▁inc	-1276
▁cause	-1277
▁something	-1278
▁Ar	-1279
▁mov	-1280
▁less	-1281
ables	-1282
▁space	-1283
▁repres	-1284
000	-1285
▁now	-1286
usion	-1287
▁grou	-1288
▁activ	-1289
▁certain	-1290
▁challeng	-1291
▁ways	-1292
▁place	-1293
▁years	-1294
▁understanding	-1295
str	-1296
face	-1297
▁arg	-1298
▁comb	-1299
▁Please	-1300
▁did	-1301
▁care	-1302
ication	-1303
ope	-1304
curity	-1305
▁protect	-1306
▁z	-1307
val	-1308
ling	-1309
raft	-1310
11	-1311
▁unique	-1312
ery	-1313
oose	-1314
▁Yes	-1315
▁size	-1316
▁engine	-1317
▁sit	-1318
▁tasks	-1319
▁strong	-1320
▁company	-1321
po	-1322
io	-1323
aster	-1324
▁material	-1325
▁source	-1326
▁wid	-1327
imate	-1328
▁look	-1329
▁meas	-1330
▁dri	-1331
▁history	-1332
▁network	-1333
▁9	-1334
ral	-1335
▁cr	-1336
▁exist	-1337
▁similar	-1338
ateg	-1339
▁Cre	-1340
▁aff	-1341
uss	-1342
▁lik	-1343
▁econom	-1344
▁general	-1345
▁gre	-1346
▁response	-1347
atform	-1348
▁While	-1349
ull	-1350
orld	-1351
▁tell	-1352
▁another	-1353
▁install	-1354
▁algorithm	-1355
▁/	-1356
uck	-1357
here	-1358
aking	-1359
verse	-1360
ems	-1361
chie	-1362
▁body	-1363
▁uses	-1364
▁tools	-1365
▁changes	-1366
▁correct	-1367
iven	-1368
▁means	-1369
▁hy	-1370
▁ask	-1371
light	-1372
▁mag	-1373
▁stand	-1374
▁until	-1375
▁online	-1376
▁dog	-1377
▁port	-1378
▁ident	-1379
cy	-1380
ember	-1381
▁image	-1382
▁implement	-1383
ape	-1384
oice	-1385
▁pain	-1386
▁influ	-1387
▁invest	-1388
▁public	-1389
▁interact	-1390
▁.	-1391
▁pa	-1392
lish	-1393
▁types	-1394
ination	-1395
▁respons	-1396
uro	-1397
ants	-1398
uture	-1399
▁anim	-1400
▁machine	-1401
und	-1402
▁Sh	-1403
ledge	-1404
▁users	-1405
▁applications	-1406
▁est	-1407
▁content	-1408
▁gr	-1409
ttps	-1410
ision	-1411
▁temper	-1412
▁prevent	-1413
▁dat	-1414
ances	-1415
▁case	-1416
▁vide	-1417
▁short	-1418
js	-1419
ws	-1420
ium	-1421
pire	-1422
▁One	-1423
▁war	-1424
▁mind	-1425
▁saf	-1426
ified	-1427
▁achie	-1428
▁check	-1429
▁please	-1430
▁problem	-1431
1,	-1432
▁order	-1433
▁allows	-1434
▁ability	-1435
cle	-1436
gin	-1437
▁Se	-1438
vern	-1439
atural	-1440
▁compon	-1441
▁store	-1442
▁technology	-1443
▁cost	-1444
▁necess	-1445
▁platform	-1446
par	-1447
▁suc	-1448
▁event	-1449
ditionally	-1450
▁contin	-1451
▁website	-1452
way	-1453
▁Over	-1454
▁speed	-1455
▁study	-1456
▁particular	-1457
▁Ne	-1458
ital	-1459
co	-1460
add	-1461
ger	-1462
▁note	-1463
▁rele	-1464
▁become	-1465
▁server	-1466
▁By	-1467
▁view	-1468
▁behavior	-1469
▁low	-1470
▁creating	-1471
omet	-1472
▁bus	-1473
▁fur	-1474
ellig	-1475
▁mathem	-1476
▁relations	-1477
oph	-1478
▁Pl	-1479
▁sing	-1480
▁contribut	-1481
▁considered	-1482
▁why	-1483
▁child	-1484
▁weight	-1485
▁structure	-1486
for	-1487
inux	-1488
▁ben	-1489
▁ele	-1490
▁Earth	-1491
▁models	-1492
".	-1493
aces	-1494
crib	-1495
▁area	-1496
▁music	-1497
▁polit	-1498
▁del	-1499
▁integ	-1500
▁intern	-1501
▁numbers	-1502
ats	-1503
vert	-1504
anced	-1505
▁block	-1506
▁research	-1507
▁services	-1508
▁knowledge	-1509
▁Additionally	-1510
))	-1511
name	-1512
▁quick	-1513
▁experi	-1514
load	-1515
utes	-1516
ories	-1517
pre	-1518
▁Be	-1519
ason	-1520
▁reduce	-1521
▁request	-1522
▁provides	-1523
▁Sc	-1524
ring	-1525
rodu	-1526
arget	-1527
▁Create	-1528
▁maintain	-1529
cho	-1530
els	-1531
ots	-1532
▁Go	-1533
▁orig	-1534
▁pref	-1535
▁values	-1536
▁My	-1537
▁US	-1538
▁terms	-1539
▁variety	-1540
▁security	-1541
▁yourself	-1542
▁team	-1543
▁think	-1544
▁scient	-1545
▁within	-1546
▁relationship	-1547
rag	-1548
dict	-1549
▁field	-1550
ox	-1551
ken	-1552
▁optim	-1553
▁likely	-1554
▁profess	-1555
St	-1556
sh	-1557
▁oc	-1558
▁err	-1559
▁fre	-1560
▁say	-1561
▁sun	-1562
▁caus	-1563
ulation	-1564
▁future	-1565
alk	-1566
por	-1567
▁log	-1568
meric	-1569
▁soci	-1570
▁search	-1571
PT	-1572
▁due	-1573
▁library	-1574
▁someone	-1575
2,	-1576
ogn	-1577
▁es	-1578
▁ess	-1579
▁idea	-1580
▁pack	-1581
▁clear	-1582
▁issues	-1583
▁represent	-1584
PI	-1585
▁:	-1586
port	-1587
▁squ	-1588
▁tri	-1589
word	-1590
itor	-1591
▁side	-1592
▁avoid	-1593
▁market	-1594
▁multiple	-1595
ze	-1596
xim	-1597
▁With	-1598
▁else	-1599
▁song	-1600
▁three	-1601
▁strateg	-1602
ww	-1603
ption	-1604
idence	-1605
▁Americ	-1606
▁writing	-1607
AI	-1608
pri	-1609
cing	-1610
▁doc	-1611
▁mot	-1612
▁cour	-1613
▁color	-1614
▁theory	-1615
▁meaning	-1616
▁regular	-1617
▁designed	-1618
amp	-1619
▁appe	-1620
▁indust	-1621
▁powerful	-1622
aut	-1623
▁ge	-1624
ctor	-1625
▁Eng	-1626
iting	-1627
▁goals	-1628
▁govern	-1629
▁non	-1630
▁land	-1631
▁role	-1632
▁words	-1633
ditions	-1634
ury	-1635
▁leg	-1636
▁mil	-1637
py	-1638
▁No	-1639
ails	-1640
▁bat	-1641
▁vol	-1642
ively	-1643
▁head	-1644
▁since	-1645
▁humans	-1646
▁depending	-1647
ml	-1648
ploy	-1649
▁uni	-1650
▁That	-1651
▁summ	-1652
▁turn	-1653
▁style	-1654
▁natural	-1655
▁En	-1656
▁dig	-1657
▁sent	-1658
▁word	-1659
▁against	-1660
▁version	-1661
▁anything	-1662
pr	-1663
app	-1664
ume	-1665
▁takes	-1666
▁cannot	-1667
ene	-1668
hor	-1669
ute	-1670
fort	-1671
ooks	-1672
iving	-1673
▁press	-1674
▁success	-1675
▁building	-1676
▁community	-1677
10	-1678
19	-1679
umn	-1680
▁gl	-1681
chan	-1682
date	-1683
vant	-1684
▁mass	-1685
▁rest	-1686
▁secon	-1687
▁manage	-1688
▁working	-1689
▁][	-1690
come	-1691
▁Make	-1692
▁target	-1693
irt	-1694
ilos	-1695
▁mor	-1696
ctions	-1697
▁sound	-1698
▁super	-1699
▁context	-1700
▁message	-1701
erc	-1702
▁Im	-1703
vent	-1704
▁necessary	-1705
orn	-1706
▁mo	-1707
back	-1708
ological	-1709
▁describ	-1710
▁problems	-1711
ffic	-1712
ouse	-1713
place	-1714
raw	-1715
▁Let	-1716
▁cir	-1717
▁deep	-1718
ression	-1719
▁United	-1720
▁quality	-1721
▁dr	-1722
▁minutes	-1723
▁physical	-1724
idd	-1725
▁ear	-1726
▁lit	-1727
▁Linux	-1728
▁affect	-1729
▁business	-1730
▁On	-1731
izing	-1732
▁past	-1733
▁frame	-1734
▁makes	-1735
▁address	-1736
▁special	-1737
▁Em	-1738
▁benef	-1739
▁local	-1740
▁points	-1741
▁options	-1742
▁approach	-1743
ule	-1744
▁Des	-1745
▁times	-1746
▁single	-1747
▁created	-1748
▁instead	-1749
▁efficient	-1750
▁algorithms	-1751
ently	-1752
gether	-1753
▁involves	-1754
▁together	-1755
('	-1756
acy	-1757
ert	-1758
▁sal	-1759
▁basic	-1760
▁given	-1761
▁enough	-1762
▁additional	-1763
▁jo	-1764
▁Fin	-1765
▁priv	-1766
▁risk	-1767
▁mathemat	-1768
▁characters	-1769
▁tre	-1770
▁further	-1771
▁intellig	-1772
path	-1773
asing	-1774
▁quant	-1775
olution	-1776
▁remain	-1777
▁travel	-1778
▁languages	-1779
be	-1780
oot	-1781
ches	-1782
leep	-1783
▁Inst	-1784
▁ideas	-1785
▁objects	-1786
==	-1787
▁pie	-1788
ental	-1789
iques	-1790
▁next	-1791
illion	-1792
▁rad	-1793
▁Cl	-1794
ngth	-1795
▁bro	-1796
based	-1797
▁prin	-1798
▁typically	-1799
pose	-1800
▁ant	-1801
lying	-1802
▁areas	-1803
▁sense	-1804
▁attack	-1805
▁distance	-1806
ips	-1807
▁ey	-1808
iled	-1809
▁love	-1810
▁Could	-1811
▁files	-1812
▁looking	-1813
ener	-1814
▁API	-1815
▁old	-1816
▁base	-1817
▁come	-1818
▁helps	-1819
ides	-1820
nter	-1821
▁hig	-1822
▁sym	-1823
▁call	-1824
▁players	-1825
ties	-1826
ording	-1827
▁having	-1828
▁methods	-1829
ane	-1830
▁imm	-1831
▁job	-1832
urope	-1833
▁Once	-1834
▁fore	-1835
▁Thank	-1836
ream	-1837
istic	-1838
ancial	-1839
▁memory	-1840
▁elements	-1841
▁increase	-1842
▁techniques	-1843
▁individuals	-1844
PU	-1845
yr	-1846
The	-1847
bal	-1848
oci	-1849
tml	-1850
ived	-1851
▁bal	-1852
▁dep	-1853
▁group	-1854
ube	-1855
▁egg	-1856
▁home	-1857
▁hope	-1858
▁autom	-1859
▁cy	-1860
abor	-1861
board	-1862
cious	-1863
▁city	-1864
erence	-1865
▁needed	-1866
▁achieve	-1867
▁conditions	-1868
5,	-1869
amet	-1870
icro	-1871
craft	-1872
▁crit	-1873
▁rece	-1874
▁situ	-1875
▁Write	-1876
▁cells	-1877
▁philos	-1878
time	-1879
▁Rem	-1880
▁determine	-1881
▁temperature	-1882
▁cou	-1883
▁neg	-1884
▁loop	-1885
")	-1886
ired	-1887
aries	-1888
▁harm	-1889
ibility	-1890
▁series	-1891
▁subject	-1892
▁previous	-1893
▁application	-1894
ilt	-1895
joy	-1896
key	-1897
head	-1898
ules	-1899
▁adj	-1900
ivity	-1901
▁video	-1902
▁assist	-1903
▁service	-1904
▁countries	-1905
by	-1906
ird	-1907
▁cop	-1908
▁true	-1909
▁wide	-1910
▁World	-1911
▁media	-1912
▁track	-1913
▁choice	-1914
▁modern	-1915
▁prompt	-1916
▁Overall	-1917
▁generate	-1918
ott	-1919
rypt	-1920
▁Add	-1921
▁last	-1922
▁scre	-1923
▁choose	-1924
▁mechan	-1925
▁political	-1926
ann	-1927
▁She	-1928
ength	-1929
▁fall	-1930
▁fast	-1931
▁never	-1932
▁valid	-1933
ysis	-1934
▁card	-1935
▁today	-1936
▁action	-1937
▁display	-1938
▁functions	-1939
ney	-1940
ush	-1941
▁12	-1942
orks	-1943
▁left	-1944
aging	-1945
▁easy	-1946
▁defin	-1947
▁economic	-1948
▁position	-1949
sequ	-1950
▁gain	-1951
▁kind	-1952
▁predict	-1953
▁results	-1954
ML	-1955
ON	-1956
ites	-1957
▁exc	-1958
verage	-1959
▁accur	-1960
▁begin	-1961
ditional	-1962
▁evidence	-1963
::	-1964
OS	-1965
ample	-1966
andom	-1967
chool	-1968
▁emot	-1969
▁occur	-1970
▁quickly	-1971
],	-1972
▁Ph	-1973
ello	-1974
▁Che	-1975
▁Int	-1976
▁dam	-1977
▁Cons	-1978
▁sets	-1979
▁vary	-1980
▁includes	-1981
▁patterns	-1982
let	-1983
avor	-1984
ises	-1985
oney	-1986
ients	-1987
wards	-1988
▁string	-1989
:**	-1990
oms	-1991
▁Set	-1992
ystem	-1993
pecial	-1994
ration	-1995
▁brain	-1996
▁table	-1997
▁consum	-1998
▁events	-1999
▁family	-2000
▁account	-2001
▁explore	-2002
▁projects	-2003
...	-2004
▁et	-2005
ours	-2006
▁Are	-2007
▁div	-2008
▁away	-2009
▁flow	-2010
▁Europe	-2011
▁running	-2012
▁whether	-2013
▁financial	-2014
au	-2015
land	-2016
▁rob	-2017
▁exerc	-2018
▁offer	-2019
erences	-2020
▁effort	-2021
▁challenges	-2022
the	-2023
▁init	-2024
▁above	-2025
▁clean	-2026
▁society	-2027
3,	-2028
▁HT	-2029
work	-2030
▁glo	-2031
▁coll	-2032
▁fish	-2033
▁norm	-2034
▁path	-2035
▁sens	-2036
indows	-2037
priate	-2038
▁standard	-2039
iod	-2040
▁Ac	-2041
anks	-2042
▁aud	-2043
aring	-2044
ished	-2045
isions	-2046
script	-2047
▁paper	-2048
▁altern	-2049
▁easier	-2050
▁sl	-2051
▁Dis	-2052
▁force	-2053
▁graph	-2054
▁States	-2055
▁second	-2056
▁present	-2057
▁professional	-2058
":	-2059
▁age	-2060
▁eth	-2061
ulate	-2062
▁share	-2063
▁sleep	-2064
▁brow	-2065
▁games	-2066
▁trying	-2067
▁materials	-2068
▁requirements	-2069
__	-2070
une	-2071
aves	-2072
roid	-2073
▁done	-2074
▁exec	-2075
▁said	-2076
▁document	-2077
ym	-2078
▁deb	-2079
iency	-2080
▁convers	-2081
▁country	-2082
▁friends	-2083
of	-2084
oh	-2085
amed	-2086
▁mar	-2087
▁capt	-2088
▁root	-2089
▁task	-2090
▁advant	-2091
▁matter	-2092
▁nature	-2093
we	-2094
izes	-2095
▁highly	-2096
▁player	-2097
▁taking	-2098
▁depends	-2099
▁progress	-2100
▁requires	-2101
1.	-2102
▁far	-2103
arent	-2104
▁Chat	-2105
▁Germ	-2106
▁array	-2107
▁measure	-2108
▁science	-2109
▁provided	-2110
▁intelligence	-2111
ont	-2112
ogle	-2113
oman	-2114
over	-2115
▁minim	-2116
▁option	-2117
▁school	-2118
ters	-2119
▁Why	-2120
▁blue	-2121
▁rather	-2122
▁production	-2123
lex	-2124
rop	-2125
text	-2126
irtual	-2127
ologies	-2128
▁associ	-2129
▁growth	-2130
▁components	-2131
ynam	-2132
▁202	-2133
Script	-2134
▁black	-2135
▁going	-2136
▁limit	-2137
▁obser	-2138
▁solar	-2139
▁sources	-2140
oes	-2141
set	-2142
▁==	-2143
▁Us	-2144
elds	-2145
etic	-2146
▁Res	-2147
▁fit	-2148
▁pow	-2149
erson	-2150
▁book	-2151
ection	-2152
▁analy	-2153
▁layer	-2154
▁column	-2155
▁compet	-2156
▁higher	-2157
▁regard	-2158
▁strength	-2159
▁essential	-2160
,"	-2161
/2	-2162
jor	-2163
data	-2164
ised	-2165
side	-2166
▁feed	-2167
▁stay	-2168
▁https	-2169
▁shape	-2170
▁format	-2171
▁recogn	-2172
▁useful	-2173
ma	-2174
use	-2175
▁0.	-2176
html	-2177
▁fig	-2178
itions	-2179
ograph	-2180
uments	-2181
pportun	-2182
▁adjust	-2183
▁happen	-2184
▁period	-2185
▁respect	-2186
▁American	-2187
▁especial	-2188
ik	-2189
man	-2190
osed	-2191
▁opp	-2192
ators	-2193
▁enjoy	-2194
▁least	-2195
▁concepts	-2196
▁Tr	-2197
▁put	-2198
▁dark	-2199
lection	-2200
▁devices	-2201
▁especially	-2202
▁government	-2203
▁appropriate	-2204
sel	-2205
empt	-2206
iment	-2207
▁Expl	-2208
▁concern	-2209
▁helpful	-2210
▁identify	-2211
ids	-2212
▁flo	-2213
ither	-2214
▁post	-2215
▁supp	-2216
▁course	-2217
▁levels	-2218
▁Finally	-2219
▁element	-2220
▁advanced	-2221
▁location	-2222
▁relevant	-2223
▁required	-2224
▁properties	-2225
▁scientific	-2226
0.	-2227
ask	-2228
ump	-2229
▁Bl	-2230
▁lot	-2231
icate	-2232
▁days	-2233
▁reach	-2234
▁continue	-2235
▁difference	-2236
▁traditional	-2237
GPT	-2238
eep	-2239
ift	-2240
rad	-2241
anger	-2242
▁rout	-2243
alking	-2244
▁along	-2245
atively	-2246
imately	-2247
▁states	-2248
▁constant	-2249
▁practice	-2250
new	-2251
oud	-2252
ula	-2253
like	-2254
cient	-2255
▁prim	-2256
▁heart	-2257
▁expect	-2258
▁reason	-2259
▁review	-2260
▁overall	-2261
▁starting	-2262
▁philosoph	-2263
▁differences	-2264
dom	-2265
akes	-2266
▁Ser	-2267
▁fac	-2268
▁law	-2269
▁ball	-2270
▁slow	-2271
python	-2272
utions	-2273
▁items	-2274
▁believe	-2275
▁conscious	-2276
ese	-2277
sol	-2278
List	-2279
rast	-2280
▁Mar	-2281
inking	-2282
▁princi	-2283
▁widely	-2284
▁cultural	-2285
▁positive	-2286
▁communication	-2287
yg	-2288
col	-2289
list	-2290
roll	-2291
▁Col	-2292
▁lab	-2293
▁pay	-2294
▁inde	-2295
▁frequ	-2296
▁solve	-2297
▁belief	-2298
▁button	-2299
▁compan	-2300
▁ground	-2301
▁planet	-2302
▁getting	-2303
▁introdu	-2304
▁medical	-2305
▁summary	-2306
▁interpre	-2307
▁experiences	-2308
racy	-2309
▁bit	-2310
ready	-2311
▁Your	-2312
▁face	-2313
▁ones	-2314
ground	-2315
▁python	-2316
▁quantum	-2317
abilities	-2318
▁operating	-2319
▁efficiency	-2320
')	-2321
aps	-2322
▁ut	-2323
▁200	-2324
▁New	-2325
▁Now	-2326
▁ang	-2327
oring	-2328
utton	-2329
▁react	-2330
▁across	-2331
▁leading	-2332
▁started	-2333
▁trained	-2334
▁usually	-2335
▁universe	-2336
AM	-2337
▁load	-2338
▁sort	-2339
▁break	-2340
▁white	-2341
clusion	-2342
▁employ	-2343
ulations	-2344
▁produce	-2345
▁property	-2346
go	-2347
▁once	-2348
▁phot	-2349
▁rate	-2350
ension	-2351
▁datab	-2352
▁offers	-2353
▁comfort	-2354
▁effects	-2355
▁opportun	-2356
ili	-2357
ault	-2358
ones	-2359
▁cat	-2360
▁doing	-2361
▁estab	-2362
▁issue	-2363
▁separ	-2364
▁young	-2365
izations	-2366
▁related	-2367
▁smaller	-2368
▁surface	-2369
avaScript	-2370
▁processes	-2371
▁big	-2372
▁pan	-2373
▁Cont	-2374
▁dest	-2375
▁goal	-2376
▁page	-2377
▁comes	-2378
▁major	-2379
▁Google	-2380
▁config	-2381
▁window	-2382
▁involve	-2383
▁thought	-2384
▁analysis	-2385
▁developed	-2386
het	-2387
fact	-2388
itch	-2389
▁bar	-2390
▁oil	-2391
orial	-2392
▁rock	-2393
▁stat	-2394
▁stop	-2395
ensive	-2396
▁email	-2397
▁exact	-2398
▁little	-2399
▁consequ	-2400
▁written	-2401
▁attention	-2402
▁developers	-2403
ER	-2404
mit	-2405
gest	-2406
itud	-2407
lict	-2408
▁buy	-2409
▁roll	-2410
▁error	-2411
▁damage	-2412
▁random	-2413
▁square	-2414
icy	-2415
base	-2416
ival	-2417
▁heav	-2418
▁sequ	-2419
▁match	-2420
▁night	-2421
▁already	-2422
▁animals	-2423
▁continu	-2424
▁purpose	-2425
▁processing	-2426
4,	-2427
sy	-2428
ining	-2429
inter	-2430
▁meet	-2431
▁attempt	-2432
▁effective	-2433
▁influence	-2434
▁providing	-2435
12	-2436
unt	-2437
▁At	-2438
duct	-2439
ffee	-2440
▁ste	-2441
aming	-2442
plies	-2443
▁full	-2444
▁prob	-2445
▁adapt	-2446
▁money	-2447
▁spell	-2448
ificial	-2449
▁length	-2450
▁original	-2451
▁transform	-2452
ply	-2453
▁vi	-2454
▁HTML	-2455
▁loss	-2456
▁tips	-2457
▁parts	-2458
▁fields	-2459
▁neural	-2460
▁discuss	-2461
▁allowing	-2462
▁hardware	-2463
▁industry	-2464
▁perspect	-2465
ah	-2466
orry	-2467
aches	-2468
▁prec	-2469
selves	-2470
▁cross	-2471
▁appear	-2472
▁actions	-2473
▁solution	-2474
▁variable	-2475
ows	-2476
▁15	-2477
down	-2478
file	-2479
ints	-2480
ront	-2481
▁fix	-2482
ailed	-2483
▁suit	-2484
▁lower	-2485
▁named	-2486
▁express	-2487
aly	-2488
ohn	-2489
ison	-2490
orth	-2491
part	-2492
▁near	-2493
▁rules	-2494
▁became	-2495
▁detect	-2496
▁transl	-2497
▁climate	-2498
▁decisions	-2499
▁directory	-2500
ID	-2501
sv	-2502
ung	-2503
fect	-2504
▁red	-2505
▁upd	-2506
aling	-2507
enced	-2508
▁Note	-2509
▁chem	-2510
▁dise	-2511
▁grav	-2512
▁miss	-2513
▁After	-2514
▁hours	-2515
▁incor	-2516
▁prior	-2517
▁handle	-2518
▁benefits	-2519
▁throughout	-2520
00,	-2521
rie	-2522
pper	-2523
▁ful	-2524
tings	-2525
▁live	-2526
▁send	-2527
▁select	-2528
▁average	-2529
▁consist	-2530
▁activities	-2531
3.	-2532
iet	-2533
mon	-2534
nov	-2535
cles	-2536
itle	-2537
ocol	-2538
fully	-2539
▁fund	-2540
▁guid	-2541
▁jour	-2542
▁among	-2543
▁close	-2544
▁encou	-2545
▁center	-2546
▁ChatGPT	-2547
▁Remember	-2548
▁challenging	-2549
me	-2550
ler	-2551
▁id	-2552
arily	-2553
▁date	-2554
▁becom	-2555
▁built	-2556
▁cases	-2557
▁global	-2558
In	-2559
aw	-2560
bs	-2561
lt	-2562
na	-2563
();	-2564
bit	-2565
▁16	-2566
resh	-2567
▁dou	-2568
▁sat	-2569
▁sec	-2570
iddle	-2571
▁arch	-2572
▁circ	-2573
▁cool	-2574
source	-2575
▁faster	-2576
▁products	-2577
num	-2578
▁El	-2579
miss	-2580
▁flu	-2581
▁Rust	-2582
▁aware	-2583
▁lives	-2584
▁month	-2585
▁images	-2586
▁itself	-2587
▁associated	-2588
▁management	-2589
▁particularly	-2590
ek	-2591
bol	-2592
ror	-2593
apan	-2594
ield	-2595
ster	-2596
▁dom	-2597
▁ill	-2598
▁lat	-2599
▁ver	-2600
▁Then	-2601
▁Develop	-2602
▁ancient	-2603
▁package	-2604
RL	-2605
do	-2606
▁Le	-2607
▁Man	-2608
force	-2609
▁core	-2610
▁educ	-2611
▁Check	-2612
▁batter	-2613
▁really	-2614
▁screen	-2615
▁English	-2616
▁contains	-2617
▁internet	-2618
ipp	-2619
▁Su	-2620
anch	-2621
ider	-2622
▁Cal	-2623
▁lif	-2624
▁tim	-2625
astic	-2626
igate	-2627
▁decl	-2628
▁seen	-2629
▁happy	-2630
itation	-2631
▁entire	-2632
▁inside	-2633
▁spread	-2634
▁collect	-2635
▁weather	-2636
▁assistant	-2637
▁computing	-2638
▁relationships	-2639
2)	-2640
IN	-2641
zz	-2642
▁Or	-2643
rong	-2644
ured	-2645
▁fru	-2646
asons	-2647
▁imag	-2648
▁surv	-2649
▁wood	-2650
▁earth	-2651
▁culture	-2652
▁details	-2653
▁initial	-2654
▁generally	-2655
bon	-2656
odes	-2657
omen	-2658
itary	-2659
eration	-2660
▁either	-2661
▁normal	-2662
ribution	-2663
▁balance	-2664
▁paramet	-2665
▁accurate	-2666
▁describe	-2667
▁electric	-2668
AR	-2669
ipe	-2670
oss	-2671
uce	-2672
▁op	-2673
▁sn	-2674
▁Ind	-2675
https	-2676
▁bring	-2677
▁fight	-2678
▁purch	-2679
▁aspect	-2680
▁digital	-2681
▁conflict	-2682
▁directly	-2683
dir	-2684
▁30	-2685
▁Bu	-2686
▁np	-2687
iles	-2688
▁App	-2689
▁deg	-2690
▁mix	-2691
aving	-2692
▁stru	-2693
▁doesn	-2694
▁century	-2695
▁activity	-2696
2.	-2697
▁9.	-2698
▁Pr	-2699
outh	-2700
▁Red	-2701
▁won	-2702
▁scen	-2703
▁upon	-2704
ensions	-2705
▁simply	-2706
cription	-2707
▁playing	-2708
AT	-2709
alu	-2710
rage	-2711
soft	-2712
▁Reg	-2713
▁etc	-2714
▁hol	-2715
▁lic	-2716
▁nav	-2717
▁smo	-2718
osing	-2719
▁tast	-2720
▁Start	-2721
▁dynam	-2722
▁motiv	-2723
▁treat	-2724
▁groups	-2725
▁larger	-2726
▁secure	-2727
▁virtual	-2728
▁equation	-2729
▁companies	-2730
▁operations	-2731
▁interesting	-2732
inary	-2733
▁Brit	-2734
▁fire	-2735
▁heat	-2736
▁safe	-2737
▁shap	-2738
▁Micro	-2739
▁maxim	-2740
▁topic	-2741
▁coffee	-2742
▁danger	-2743
▁threat	-2744
▁visual	-2745
volution	-2746
▁compared	-2747
▁decision	-2748
▁programs	-2749
oe	-2750
ges	-2751
ius	-2752
rap	-2753
body	-2754
care	-2755
▁(20	-2756
▁War	-2757
▁hot	-2758
▁hyd	-2759
▁led	-2760
icial	-2761
itude	-2762
▁drive	-2763
▁lines	-2764
quality	-2765
versity	-2766
▁height	-2767
▁longer	-2768
▁beliefs	-2769
ification	-2770
▁involved	-2771
▁properly	-2772
▁abilities	-2773
▁calculate	-2774
▁themselves	-2775
.,	-2776
son	-2777
ager	-2778
▁God	-2779
inder	-2780
istics	-2781
▁Using	-2782
▁OpenAI	-2783
▁active	-2784
▁behind	-2785
▁specif	-2786
▁download	-2787
▁independ	-2788
ST	-2789
era	-2790
▁cut	-2791
▁ded	-2792
▁inj	-2793
▁Each	-2794
▁bott	-2795
▁cast	-2796
▁room	-2797
▁board	-2798
▁author	-2799
▁histor	-2800
▁healthy	-2801
▁species	-2802
▁argument	-2803
▁feedback	-2804
▁practices	-2805
▁preferences	-2806
']	-2807
fit	-2808
ype	-2809
▁--	-2810
ding	-2811
ians	-2812
resp	-2813
▁Web	-2814
asses	-2815
▁padd	-2816
▁blood	-2817
▁final	-2818
▁later	-2819
▁device	-2820
▁letter	-2821
▁living	-2822
▁Windows	-2823
▁mathematical	-2824
25	-2825
bl	-2826
ls	-2827
ait	-2828
bra	-2829
www	-2830
▁Li	-2831
sole	-2832
▁100	-2833
▁Get	-2834
▁der	-2835
▁nut	-2836
▁tot	-2837
itect	-2838
▁chick	-2839
▁demon	-2840
▁simpl	-2841
▁colors	-2842
▁explan	-2843
▁reflect	-2844
▁children	-2845
▁complete	-2846
▁component	-2847
▁situation	-2848
▁variables	-2849
▁consequences	-2850
my	-2851
oad	-2852
war	-2853
pare	-2854
clude	-2855
ister	-2856
▁draw	-2857
ometry	-2858
▁early	-2859
▁connection	-2860
▁everything	-2861
['	-2862
rid	-2863
rupt	-2864
▁Acc	-2865
▁May	-2866
▁ing	-2867
▁kil	-2868
▁eggs	-2869
▁weak	-2870
▁Roman	-2871
▁price	-2872
▁trust	-2873
▁desired	-2874
▁negative	-2875
▁complexity	-2876
▁alternative	-2877
ny	-2878
▁?	-2879
ably	-2880
aced	-2881
hent	-2882
▁Per	-2883
▁Ult	-2884
plied	-2885
▁Prov	-2886
▁cook	-2887
▁eyes	-2888
▁host	-2889
▁catch	-2890
▁house	-2891
▁piece	-2892
▁veget	-2893
ception	-2894
▁perfect	-2895
▁customer	-2896
▁database	-2897
▁architect	-2898
▁platforms	-2899
▁distribution	-2900
Ch	-2901
arc	-2902
att	-2903
▁ur	-2904
ands	-2905
ners	-2906
pite	-2907
▁vul	-2908
▁hold	-2909
▁synt	-2910
▁evalu	-2911
▁legal	-2912
▁plant	-2913
▁plants	-2914
▁safety	-2915
▁towards	-2916
▁framework	-2917
▁interface	-2918
▁responses	-2919
▁background	-2920
6,	-2921
AN	-2922
100	-2923
aim	-2924
alf	-2925
ups	-2926
▁2,	-2927
Name	-2928
▁hor	-2929
idity	-2930
▁tree	-2931
▁infin	-2932
uration	-2933
▁medium	-2934
▁limited	-2935
▁million	-2936
▁actually	-2937
----------------	-2938
SC	-2939
ees	-2940
▁CS	-2941
cent	-2942
eria	-2943
ored	-2944
▁mel	-2945
▁ever	-2946
▁fine	-2947
▁books	-2948
▁datas	-2949
▁everyone	-2950
▁potentially	-2951
ok	-2952
amb	-2953
hers	-2954
inct	-2955
term	-2956
▁(19	-2957
▁201	-2958
▁Pre	-2959
ening	-2960
▁Gree	-2961
▁guit	-2962
▁node	-2963
elling	-2964
▁innov	-2965
▁spend	-2966
▁easily	-2967
▁creates	-2968
▁follows	-2969
▁respond	-2970
▁Microsoft	-2971
▁condition	-2972
▁principles	-2973
AD	-2974
HT	-2975
asy	-2976
ball	-2977
yond	-2978
▁Def	-2979
▁Mon	-2980
▁Try	-2981
▁bad	-2982
▁civ	-2983
oding	-2984
plate	-2985
▁laws	-2986
▁total	-2987
▁report	-2988
▁privacy	-2989
▁military	-2990
▁remember	-2991
▁currently	-2992
▁experiment	-2993
▁consciousness	-2994
-3	-2995
AL	-2996
irm	-2997
▁bed	-2998
ended	-2999
▁Since	-3000
▁worth	-3001
istance	-3002
▁advice	-3003
▁Another	-3004
▁monitor	-3005
▁commonly	-3006
▁sequence	-3007
▁developing	-3008
**:	-3009
aur	-3010
ina	-3011
izz	-3012
value	-3013
▁Name	-3014
▁evol	-3015
▁item	-3016
▁spir	-3017
friend	-3018
▁apply	-3019
▁forms	-3020
▁sorry	-3021
▁thing	-3022
▁watch	-3023
▁parent	-3024
▁remove	-3025
▁replace	-3026
▁returns	-3027
▁electron	-3028
▁exercise	-3029
▁networks	-3030
▁students	-3031
▁distribut	-3032
▁recommended	-3033
IT	-3034
az	-3035
bed	-3036
fer	-3037
ien	-3038
mat	-3039
▁Me	-3040
▁cup	-3041
▁sus	-3042
▁chat	-3043
▁viol	-3044
▁scene	-3045
▁commit	-3046
▁pressure	-3047
▁conversation	-3048
▁technologies	-3049
LE	-3050
af	-3051
top	-3052
uth	-3053
alse	-3054
augh	-3055
▁aim	-3056
ached	-3057
world	-3058
▁king	-3059
▁lack	-3060
▁ment	-3061
▁manip	-3062
▁names	-3063
▁modify	-3064
▁played	-3065
redients	-3066
▁chicken	-3067
▁communities	-3068
dd	-3069
gar	-3070
▁25	-3071
▁Fr	-3072
▁Ge	-3073
ache	-3074
▁10.	-3075
▁box	-3076
▁psy	-3077
chain	-3078
▁link	-3079
▁mole	-3080
▁equal	-3081
▁subst	-3082
▁expand	-3083
ructions	-3084
▁Certain	-3085
▁greater	-3086
▁detailed	-3087
▁incorpor	-3088
▁measures	-3089
▁creatures	-3090
▁Ultimately	-3091
▁conclusion	-3092
▁strategies	-3093
ky	-3094
uel	-3095
ucle	-3096
▁dim	-3097
ement	-3098
rated	-3099
▁Mark	-3100
▁gold	-3101
▁rule	-3102
button	-3103
lished	-3104
▁First	-3105
▁Which	-3106
▁beaut	-3107
▁Thanks	-3108
▁refers	-3109
▁vulner	-3110
fficient	-3111
▁ethical	-3112
▁concerns	-3113
▁suggestions	-3114
='	-3115
ai	-3116
aff	-3117
log	-3118
enge	-3119
oved	-3120
wise	-3121
▁abs	-3122
▁bud	-3123
▁ter	-3124
orage	-3125
▁From	-3126
▁Many	-3127
▁Russ	-3128
▁four	-3129
ensity	-3130
iation	-3131
icious	-3132
▁click	-3133
▁scale	-3134
▁advent	-3135
▁double	-3136
▁region	-3137
▁outside	-3138
▁artificial	-3139
▁healthcare	-3140
▁structures	-3141
tr	-3142
org	-3143
▁Ap	-3144
▁Av	-3145
▁mi	-3146
▁GPU	-3147
▁bir	-3148
▁cam	-3149
▁hab	-3150
▁rot	-3151
▁ult	-3152
▁vac	-3153
▁yet	-3154
ising	-3155
▁Data	-3156
▁shad	-3157
estern	-3158
object	-3159
ustain	-3160
▁green	-3161
▁prote	-3162
▁teach	-3163
▁accept	-3164
▁define	-3165
▁authent	-3166
▁journey	-3167
▁mention	-3168
▁reasons	-3169
▁increasing	-3170
▁interested	-3171
osp	-3172
▁Fe	-3173
▁Sw	-3174
emic	-3175
host	-3176
iate	-3177
isms	-3178
size	-3179
▁Ass	-3180
▁Git	-3181
▁mac	-3182
▁mis	-3183
▁tur	-3184
▁List	-3185
▁seem	-3186
overed	-3187
▁taken	-3188
▁guitar	-3189
▁stress	-3190
▁however	-3191
▁located	-3192
▁private	-3193
▁chemical	-3194
▁graphics	-3195
▁keyboard	-3196
▁movement	-3197
▁requests	-3198
▁surround	-3199
▁terminal	-3200
▁reference	-3201
▁organization	-3202
60	-3203
US	-3204
leg	-3205
oin	-3206
ole	-3207
uit	-3208
▁Tw	-3209
▁Sim	-3210
▁mer	-3211
▁row	-3212
Hello	-3213
anish	-3214
right	-3215
▁fict	-3216
▁flex	-3217
▁mist	-3218
▁reli	-3219
illing	-3220
ipment	-3221
yright	-3222
▁favor	-3223
▁whole	-3224
▁beyond	-3225
▁linear	-3226
irection	-3227
▁Explain	-3228
▁feature	-3229
▁setting	-3230
▁strategy	-3231
▁increased	-3232
▁interests	-3233
▁combination	-3234
asc	-3235
min	-3236
cket	-3237
phas	-3238
ping	-3239
▁gas	-3240
▁mut	-3241
▁tax	-3242
▁enem	-3243
▁emerg	-3244
▁magic	-3245
▁query	-3246
▁actual	-3247
▁branch	-3248
▁execut	-3249
▁origin	-3250
▁formula	-3251
▁statement	-3252
1)	-3253
olf	-3254
▁II	-3255
▁Mat	-3256
▁mit	-3257
▁pad	-3258
▁sup	-3259
icles	-3260
▁save	-3261
strict	-3262
▁chain	-3263
▁death	-3264
▁breath	-3265
▁recipe	-3266
▁symbol	-3267
▁Germany	-3268
▁computers	-3269
▁container	-3270
div	-3271
book	-3272
nown	-3273
omic	-3274
pass	-3275
▁Pol	-3276
▁eat	-3277
▁eye	-3278
▁wel	-3279
arian	-3280
level	-3281
▁Take	-3282
▁acid	-3283
▁film	-3284
▁magn	-3285
▁pick	-3286
▁repe	-3287
▁weap	-3288
▁chord	-3289
▁fully	-3290
▁third	-3291
▁wrong	-3292
▁topics	-3293
▁sustain	-3294
▁European	-3295
▁reducing	-3296
▁According	-3297
▁customers	-3298
▁libraries	-3299
▁mathematics	-3300
50	-3301
IG	-3302
PS	-3303
-10	-3304
spe	-3305
▁(2	-3306
▁Pe	-3307
vice	-3308
▁pip	-3309
▁sty	-3310
ensor	-3311
eries	-3312
▁fair	-3313
▁race	-3314
▁rise	-3315
▁warm	-3316
▁numer	-3317
ography	-3318
▁vector	-3319
▁attacks	-3320
▁console	-3321
▁audience	-3322
▁advantage	-3323
▁existence	-3324
▁technical	-3325
4.	-3326
csv	-3327
ley	-3328
pir	-3329
aged	-3330
aily	-3331
unch	-3332
used	-3333
▁ban	-3334
▁tun	-3335
▁deli	-3336
▁metal	-3337
▁moral	-3338
▁nucle	-3339
▁risks	-3340
▁score	-3341
▁speak	-3342
▁taste	-3343
ountain	-3344
▁powers	-3345
▁recent	-3346
▁physics	-3347
▁emotions	-3348
▁Therefore	-3349
▁connected	-3350
▁collection	-3351
▁importance	-3352
Ex	-3353
Wh	-3354
[0	-3355
▁df	-3356
lock	-3357
type	-3358
▁All	-3359
▁cru	-3360
▁map	-3361
▁men	-3362
ament	-3363
▁fail	-3364
▁push	-3365
▁Gener	-3366
▁guide	-3367
▁carbon	-3368
▁electr	-3369
▁members	-3370
▁feelings	-3371
▁responsible	-3372
▁opportunities	-3373
▁organizations	-3374
':	-3375
[1	-3376
wh	-3377
---	-3378
▁(1	-3379
▁Gu	-3380
====	-3381
hold	-3382
rate	-3383
▁Mod	-3384
▁cho	-3385
illed	-3386
▁Also	-3387
▁diet	-3388
▁drag	-3389
▁walk	-3390
though	-3391
▁Trans	-3392
▁apart	-3393
▁Intern	-3394
▁System	-3395
▁credit	-3396
▁mental	-3397
▁finding	-3398
▁restrict	-3399
▁architecture	-3400
arr	-3401
irl	-3402
nds	-3403
rim	-3404
tra	-3405
▁11	-3406
▁Max	-3407
input	-3408
poses	-3409
uracy	-3410
▁camp	-3411
▁myth	-3412
▁seek	-3413
atives	-3414
▁Great	-3415
▁daily	-3416
▁divid	-3417
▁flour	-3418
▁client	-3419
▁pieces	-3420
▁videos	-3421
▁remains	-3422
▁instance	-3423
▁regularly	-3424
▁contribute	-3425
▁engineering	-3426
3)	-3427
gs	-3428
ech	-3429
ales	-3430
▁bow	-3431
ounds	-3432
▁opin	-3433
▁plug	-3434
urance	-3435
▁Hello	-3436
▁assum	-3437
▁claim	-3438
▁extra	-3439
▁quite	-3440
▁robot	-3441
▁budget	-3442
▁expert	-3443
▁promot	-3444
▁record	-3445
▁analyze	-3446
▁Consider	-3447
▁arguments	-3448
▁mechanics	-3449
▁effectively	-3450
ero	-3451
ops	-3452
rel	-3453
iced	-3454
▁und	-3455
eline	-3456
ously	-3457
▁Give	-3458
▁soon	-3459
▁unit	-3460
▁movie	-3461
▁Empire	-3462
▁emphas	-3463
▁smooth	-3464
▁thread	-3465
▁volume	-3466
▁consult	-3467
▁talking	-3468
▁accuracy	-3469
▁believed	-3470
▁websites	-3471
▁copyright	-3472
▁direction	-3473
▁particles	-3474
▁solutions	-3475
bi	-3476
agn	-3477
▁1,	-3478
osis	-3479
▁cit	-3480
▁vel	-3481
▁win	-3482
alled	-3483
angle	-3484
▁acad	-3485
▁late	-3486
▁began	-3487
▁parad	-3488
▁satis	-3489
▁stars	-3490
▁anyone	-3491
▁filter	-3492
▁strugg	-3493
inecraft	-3494
▁Spanish	-3495
▁compare	-3496
▁inspire	-3497
▁collabor	-3498
▁existing	-3499
▁password	-3500
▁thinking	-3501
▁Certainly	-3502
▁according	-3503
▁challenge	-3504
▁equipment	-3505
▁historical	-3506
?"	-3507
`.	-3508
rm	-3509
iny	-3510
▁Fl	-3511
▁ir	-3512
IGHT	-3513
bing	-3514
▁Min	-3515
▁Sun	-3516
▁sil	-3517
rench	-3518
▁cold	-3519
agraph	-3520
▁stock	-3521
▁errors	-3522
▁passed	-3523
▁stable	-3524
▁causing	-3525
▁contract	-3526
▁dangerous	-3527
▁successful	-3528
▁underlying	-3529
!"	-3530
32	-3531
ged	-3532
hel	-3533
rem	-3534
uff	-3535
▁Of	-3536
ayer	-3537
plit	-3538
user	-3539
▁Off	-3540
▁god	-3541
▁got	-3542
ocket	-3543
▁clim	-3544
▁lapt	-3545
▁salt	-3546
▁added	-3547
▁angle	-3548
▁index	-3549
▁logic	-3550
▁Choose	-3551
▁master	-3552
▁rights	-3553
▁supply	-3554
▁update	-3555
▁central	-3556
▁largest	-3557
▁primary	-3558
▁promote	-3559
▁creative	-3560
▁demonstr	-3561
▁separate	-3562
▁continues	-3563
▁establish	-3564
▁interpret	-3565
▁parameters	-3566
▁population	-3567
ony	-3568
que	-3569
ums	-3570
hedu	-3571
rial	-3572
▁Our	-3573
▁arr	-3574
ether	-3575
ights	-3576
iliar	-3577
▁five	-3578
▁chess	-3579
▁usage	-3580
osition	-3581
utorial	-3582
▁famous	-3583
▁prefer	-3584
▁retrie	-3585
▁reward	-3586
atically	-3587
▁aspects	-3588
▁feeling	-3589
▁fishing	-3590
▁forward	-3591
▁gravity	-3592
▁serious	-3593
▁welcome	-3594
▁critical	-3595
▁resulting	-3596
▁perspective	-3597
TT	-3598
ino	-3599
opt	-3600
vas	-3601
▁rh	-3602
flow	-3603
▁mom	-3604
▁sky	-3605
▁Good	-3606
▁defe	-3607
▁vert	-3608
encies	-3609
ternal	-3610
▁hands	-3611
▁party	-3612
▁visit	-3613
ruction	-3614
▁caused	-3615
▁engage	-3616
▁browser	-3617
▁disease	-3618
▁maximum	-3619
▁traffic	-3620
▁capabilities	-3621
40	-3622
elt	-3623
fra	-3624
pot	-3625
unk	-3626
ouch	-3627
ried	-3628
rive	-3629
▁CPU	-3630
▁Ret	-3631
▁dry	-3632
berry	-3633
istry	-3634
uries	-3635
▁Comp	-3636
▁YouT	-3637
▁hair	-3638
▁depth	-3639
▁shows	-3640
ativity	-3641
ructure	-3642
▁cheese	-3643
▁extract	-3644
▁reality	-3645
▁changing	-3646
▁geometry	-3647
▁suitable	-3648
▁improving	-3649
▁implementation	-3650
30	-3651
TH	-3652
`,	-3653
Com	-3654
ams	-3655
dis	-3656
▁PC	-3657
▁kn	-3658
hood	-3659
room	-3660
▁011	-3661
▁Who	-3662
▁phr	-3663
▁Lear	-3664
▁Stud	-3665
▁news	-3666
▁tour	-3667
▁Under	-3668
▁float	-3669
▁front	-3670
▁ideal	-3671
▁novel	-3672
unction	-3673
▁filled	-3674
▁limits	-3675
▁Provide	-3676
▁convert	-3677
▁approxim	-3678
▁education	-3679
▁practical	-3680
▁definition	-3681
▁philosophy	-3682
▁situations	-3683
▁specifically	-3684
EN	-3685
ele	-3686
she	-3687
▁du	-3688
000,	-3689
icle	-3690
illa	-3691
inks	-3692
life	-3693
rand	-3694
ying	-3695
▁1/2	-3696
gebra	-3697
iling	-3698
known	-3699
osure	-3700
▁Does	-3701
▁goes	-3702
▁week	-3703
▁Other	-3704
▁crypt	-3705
▁dream	-3706
▁secre	-3707
▁smart	-3708
lightly	-3709
oration	-3710
▁advance	-3711
▁defined	-3712
▁release	-3713
▁storage	-3714
▁attribut	-3715
▁resource	-3716
▁supplies	-3717
▁advantages	-3718
▁relatively	-3719
5.	-3720
uzz	-3721
zing	-3722
▁His	-3723
▁hit	-3724
erate	-3725
write	-3726
▁conv	-3727
▁mode	-3728
▁pret	-3729
▁valu	-3730
▁vast	-3731
ifying	-3732
weight	-3733
▁civil	-3734
▁cloud	-3735
▁fresh	-3736
▁meant	-3737
android	-3738
▁demand	-3739
▁amounts	-3740
▁crucial	-3741
▁favorite	-3742
▁messages	-3743
▁transport	-3744
▁investment	-3745
▁protection	-3746
▁regulations	-3747
▁environmental	-3748
ae	-3749
dy	-3750
ha	-3751
esp	-3752
olve	-3753
step	-3754
uses	-3755
▁cro	-3756
odies	-3757
▁rein	-3758
▁rich	-3759
etimes	-3760
nesses	-3761
▁capac	-3762
▁heavy	-3763
▁indic	-3764
▁refer	-3765
▁seems	-3766
ocolate	-3767
▁adding	-3768
▁apolog	-3769
▁moving	-3770
▁spirit	-3771
▁testing	-3772
▁humanity	-3773
▁template	-3774
▁assistance	-3775
▁eventually	-3776
▁represents	-3777
aks	-3778
eli	-3779
met	-3780
oon	-3781
▁Af	-3782
ched	-3783
orem	-3784
▁Doc	-3785
▁bur	-3786
where	-3787
▁Diff	-3788
▁Look	-3789
▁bank	-3790
▁boot	-3791
▁foot	-3792
▁neur	-3793
▁talk	-3794
▁Power	-3795
▁fruit	-3796
▁notes	-3797
▁shell	-3798
▁bottom	-3799
▁detail	-3800
▁gaming	-3801
▁middle	-3802
▁obtain	-3803
▁policy	-3804
▁tables	-3805
▁algebra	-3806
▁capital	-3807
▁exactly	-3808
▁magical	-3809
▁aircraft	-3810
▁tutorial	-3811
▁comfortable	-3812
▁explanation	-3813
TP	-3814
dr	-3815
cel	-3816
ned	-3817
oll	-3818
rog	-3819
▁Co	-3820
arty	-3821
pped	-3822
atory	-3823
idden	-3824
xture	-3825
▁High	-3826
▁bias	-3827
▁farm	-3828
▁half	-3829
▁reve	-3830
▁sympt	-3831
▁units	-3832
itution	-3833
▁Define	-3834
▁asking	-3835
▁invent	-3836
▁leaves	-3837
▁season	-3838
▁Instead	-3839
▁battery	-3840
▁complet	-3841
▁dataset	-3842
▁economy	-3843
▁receive	-3844
▁scenari	-3845
plications	-3846
▁popularity	-3847
▁consumption	-3848
▁instructions	-3849
OR	-3850
])	-3851
hib	-3852
arge	-3853
bles	-3854
cont	-3855
rows	-3856
sect	-3857
untu	-3858
▁Det	-3859
iding	-3860
▁Both	-3861
▁Step	-3862
▁feet	-3863
▁fing	-3864
ership	-3865
person	-3866
unning	-3867
▁democ	-3868
▁gives	-3869
▁psych	-3870
▁German	-3871
▁enable	-3872
▁except	-3873
▁becomes	-3874
▁billion	-3875
▁dynamic	-3876
▁academic	-3877
▁purchase	-3878
▁purposes	-3879
▁settings	-3880
ifications	-3881
▁correctly	-3882
▁extension	-3883
▁ingredients	-3884
9,	-3885
AS	-3886
ED	-3887
ET	-3888
Th	-3889
].	-3890
su	-3891
mod	-3892
nam	-3893
avas	-3894
code	-3895
ging	-3896
ingu	-3897
rier	-3898
▁Med	-3899
▁Not	-3900
earch	-3901
press	-3902
style	-3903
▁Cent	-3904
▁girl	-3905
ellent	-3906
stream	-3907
▁North	-3908
▁Would	-3909
▁below	-3910
▁costs	-3911
▁cover	-3912
▁enter	-3913
▁causes	-3914
▁signal	-3915
▁Despite	-3916
▁classic	-3917
▁patient	-3918
avascript	-3919
▁creation	-3920
▁cultures	-3921
▁official	-3922
45	-3923
ew	-3924
');	-3925
des	-3926
ils	-3927
▁ax	-3928
eper	-3929
hens	-3930
ocal	-3931
▁Out	-3932
▁Par	-3933
▁ble	-3934
▁fan	-3935
▁sex	-3936
acing	-3937
ctors	-3938
inate	-3939
▁Mach	-3940
▁flat	-3941
▁luck	-3942
▁obst	-3943
▁pros	-3944
▁runs	-3945
▁trig	-3946
▁wild	-3947
elines	-3948
ession	-3949
▁Where	-3950
▁bound	-3951
▁broad	-3952
▁curve	-3953
▁phone	-3954
▁relig	-3955
▁serve	-3956
▁sport	-3957
▁flavor	-3958
▁flight	-3959
▁switch	-3960
▁capture	-3961
▁counter	-3962
▁focused	-3963
▁commands	-3964
▁engaging	-3965
▁expected	-3966
▁transfer	-3967
▁Minecraft	-3968
▁apologize	-3969
▁specified	-3970
▁determined	-3971
▁vegetables	-3972
▁description	-3973
BS	-3974
CT	-3975
ana	-3976
▁Ok	-3977
eral	-3978
ibly	-3979
oint	-3980
▁Art	-3981
▁Sub	-3982
ocity	-3983
▁Pres	-3984
String	-3985
amples	-3986
▁craft	-3987
▁fixed	-3988
▁looks	-3989
▁sauce	-3990
▁sides	-3991
▁During	-3992
▁battle	-3993
▁commer	-3994
▁latest	-3995
▁layers	-3996
▁propos	-3997
▁styles	-3998
▁British	-3999
▁Western	-4000
▁allowed	-4001
▁applied	-4002
▁mixture	-4003
▁priorit	-4004
▁supports	-4005
▁mentioned	-4006
▁scientists	-4007
▁limitations	-4008
-2	-4009
64	-4010
DO	-4011
px	-4012
sm	-4013
che	-4014
ses	-4015
▁Up	-4016
▁il	-4017
AION	-4018
ades	-4019
ests	-4020
onic	-4021
rade	-4022
▁GPT	-4023
▁Lat	-4024
▁lyr	-4025
▁pet	-4026
▁ple	-4027
▁tab	-4028
being	-4029
eling	-4030
hesis	-4031
▁came	-4032
▁dish	-4033
▁join	-4034
hedule	-4035
icking	-4036
▁potat	-4037
▁sugar	-4038
▁conver	-4039
▁factor	-4040
▁figure	-4041
▁module	-4042
▁office	-4043
▁places	-4044
▁sample	-4045
▁diverse	-4046
▁paradox	-4047
▁protein	-4048
▁identity	-4049
▁released	-4050
▁symptoms	-4051
▁chocolate	-4052
▁developer	-4053
▁highlight	-4054
▁probability	-4055
▁configuration	-4056
▁philosophical	-4057
55	-4058
sp	-4059
alt	-4060
cos	-4061
ibr	-4062
med	-4063
▁1)	-4064
plot	-4065
poon	-4066
reci	-4067
serv	-4068
▁Aut	-4069
▁Har	-4070
▁std	-4071
apter	-4072
orrow	-4073
▁fill	-4074
▁iron	-4075
▁lost	-4076
▁oven	-4077
▁soil	-4078
▁stra	-4079
▁wind	-4080
▁Build	-4081
▁illeg	-4082
▁peace	-4083
▁remov	-4084
▁moment	-4085
▁movies	-4086
▁YouTube	-4087
▁answers	-4088
▁capable	-4089
▁cooking	-4090
▁himself	-4091
▁regions	-4092
▁researc	-4093
▁routine	-4094
▁strings	-4095
▁studies	-4096
roduction	-4097
▁particip	-4098
▁received	-4099
▁theories	-4100
▁thoughts	-4101
▁installed	-4102
▁strengths	-4103
ey	-4104
ql	-4105
ua	-4106
box	-4107
▁Hi	-4108
alle	-4109
aper	-4110
▁199	-4111
▁Inc	-4112
▁Num	-4113
▁URL	-4114
▁ast	-4115
▁cos	-4116
rency	-4117
▁abst	-4118
▁dead	-4119
▁knew	-4120
▁math	-4121
▁plot	-4122
▁qual	-4123
▁rain	-4124
ishing	-4125
▁Greek	-4126
▁accom	-4127
▁dough	-4128
▁immed	-4129
▁noise	-4130
▁relax	-4131
▁songs	-4132
▁biases	-4133
▁bright	-4134
▁combat	-4135
▁leader	-4136
▁member	-4137
▁myself	-4138
▁vision	-4139
friendly	-4140
▁artists	-4141
▁attract	-4142
▁contact	-4143
▁corresp	-4144
▁section	-4145
▁navigate	-4146
▁construct	-4147
▁interactions	-4148
▁functionality	-4149
UR	-4150
▁]	-4151
gre	-4152
mar	-4153
ref	-4154
▁os	-4155
▁ri	-4156
ceed	-4157
ened	-4158
omes	-4159
rief	-4160
▁Act	-4161
▁Don	-4162
▁Mac	-4163
▁alm	-4164
▁den	-4165
▁sav	-4166
▁swe	-4167
itory	-4168
▁born	-4169
▁cogn	-4170
▁hear	-4171
▁milk	-4172
▁wall	-4173
▁goods	-4174
▁micro	-4175
▁polic	-4176
mission	-4177
ressive	-4178
▁France	-4179
▁interf	-4180
▁lights	-4181
▁lyrics	-4182
▁speech	-4183
▁starts	-4184
▁America	-4185
▁Science	-4186
▁appreci	-4187
▁editing	-4188
▁efforts	-4189
▁willing	-4190
▁presence	-4191
▁printing	-4192
▁slightly	-4193
▁valuable	-4194
▁exercises	-4195
▁dimensions	-4196
▁influenced	-4197
▁optimization	-4198
▁documentation	-4199
▁recommendations	-4200
1_	-4201
lev	-4202
omb	-4203
wid	-4204
▁0;	-4205
▁13	-4206
▁:=	-4207
▁CO	-4208
▁Ub	-4209
▁ox	-4210
alax	-4211
grad	-4212
icks	-4213
mosp	-4214
rist	-4215
▁Car	-4216
▁bra	-4217
▁hun	-4218
▁occ	-4219
▁sea	-4220
enses	-4221
scale	-4222
▁wave	-4223
onding	-4224
ulated	-4225
▁Apple	-4226
▁Union	-4227
▁align	-4228
▁grand	-4229
▁rough	-4230
▁thick	-4231
▁Before	-4232
▁Comput	-4233
▁atmosp	-4234
▁behavi	-4235
▁blocks	-4236
▁doctor	-4237
▁gather	-4238
▁wealth	-4239
▁growing	-4240
▁learned	-4241
plication	-4242
▁discover	-4243
▁optimize	-4244
▁planning	-4245
▁continued	-4246
▁sometimes	-4247
▁consistent	-4248
▁generation	-4249
▁statements	-4250
da	-4251
cer	-4252
ief	-4253
pes	-4254
pow	-4255
sum	-4256
ugg	-4257
▁""	-4258
affe	-4259
inst	-4260
orge	-4261
otic	-4262
rown	-4263
▁ign	-4264
▁oce	-4265
▁plt	-4266
iring	-4267
lines	-4268
ogram	-4269
onent	-4270
order	-4271
▁cris	-4272
▁didn	-4273
▁hero	-4274
▁tact	-4275
▁teas	-4276
▁went	-4277
ansion	-4278
▁Afric	-4279
▁Unity	-4280
▁accel	-4281
▁chann	-4282
▁colle	-4283
▁gradu	-4284
▁heard	-4285
▁lived	-4286
▁medic	-4287
amental	-4288
tenance	-4289
▁Person	-4290
▁camera	-4291
▁degree	-4292
▁desire	-4293
▁empire	-4294
▁gender	-4295
▁layout	-4296
▁sounds	-4297
▁stored	-4298
notation	-4299
▁license	-4300
▁student	-4301
ibilities	-4302
▁distract	-4303
▁guidance	-4304
▁generated	-4305
▁technique	-4306
rastructure	-4307
▁communicate	-4308
▁fundamental	-4309
▁independent	-4310
can	-4311
emb	-4312
pat	-4313
udd	-4314
▁2)	-4315
clus	-4316
iful	-4317
▁Att	-4318
▁bot	-4319
▁har	-4320
▁pub	-4321
▁rap	-4322
▁var	-4323
array	-4324
point	-4325
print	-4326
▁Disc	-4327
▁Stre	-4328
▁fant	-4329
▁keys	-4330
ashing	-4331
itches	-4332
string	-4333
▁Pract	-4334
▁React	-4335
▁brand	-4336
▁merge	-4337
▁orbit	-4338
▁prime	-4339
▁trade	-4340
▁trees	-4341
▁truth	-4342
include	-4343
▁French	-4344
▁deeper	-4345
▁forest	-4346
▁incred	-4347
▁shared	-4348
▁syntax	-4349
▁themes	-4350
▁default	-4351
▁queries	-4352
▁stories	-4353
efficient	-4354
▁sentence	-4355
▁primarily	-4356
▁recognize	-4357
▁accessible	-4358
▁commercial	-4359
▁completely	-4360
▁expression	-4361
▁transition	-4362
▁environments	-4363
DE	-4364
Tr	-4365
gy	-4366
ada	-4367
hol	-4368
omy	-4369
ttp	-4370
▁Ab	-4371
▁Id	-4372
enty	-4373
etes	-4374
more	-4375
▁Hum	-4376
▁Tur	-4377
▁sou	-4378
event	-4379
frame	-4380
▁Aust	-4381
▁dict	-4382
▁gram	-4383
▁pair	-4384
▁pand	-4385
▁repl	-4386
▁tend	-4387
▁wear	-4388
▁Inter	-4389
▁alien	-4390
▁antib	-4391
▁asked	-4392
▁decre	-4393
▁deriv	-4394
▁drink	-4395
▁solid	-4396
ossible	-4397
▁animal	-4398
▁assign	-4399
▁landsc	-4400
▁pepper	-4401
▁societ	-4402
▁spaces	-4403
▁static	-4404
▁Install	-4405
▁classes	-4406
forcement	-4407
▁overcome	-4408
▁emotional	-4409
▁employees	-4410
▁insurance	-4411
▁temperatures	-4412
▁automatically	-4413
▁infrastructure	-4414
def	-4415
dim	-4416
lib	-4417
mun	-4418
oke	-4419
zer	-4420
▁Sk	-4421
erry	-4422
item	-4423
izza	-4424
mers	-4425
year	-4426
▁Mer	-4427
▁bul	-4428
▁fat	-4429
▁kit	-4430
▁syn	-4431
ffect	-4432
overy	-4433
▁(201	-4434
▁bird	-4435
▁burn	-4436
▁dogs	-4437
▁mill	-4438
▁shop	-4439
▁star	-4440
▁citiz	-4441
▁false	-4442
▁humor	-4443
▁voice	-4444
▁compre	-4445
▁formal	-4446
▁shapes	-4447
▁spells	-4448
▁harmful	-4449
▁distinct	-4450
▁improved	-4451
▁operation	-4452
▁accurately	-4453
▁discovered	-4454
▁foundation	-4455
▁innovation	-4456
▁experienced	-4457
▁contributions	-4458
";	-4459
/4	-4460
RE	-4461
fl	-4462
asp	-4463
lor	-4464
yal	-4465
▁IS	-4466
▁Py	-4467
▁RE	-4468
▁Sm	-4469
▁wa	-4470
chol	-4471
main	-4472
real	-4473
▁agg	-4474
▁enh	-4475
▁uns	-4476
ufact	-4477
▁Have	-4478
▁dwar	-4479
▁meal	-4480
▁seed	-4481
▁Const	-4482
▁adult	-4483
▁sheet	-4484
▁touch	-4485
holders	-4486
▁Calcul	-4487
▁Engine	-4488
▁Ubuntu	-4489
▁afford	-4490
▁laptop	-4491
▁wanted	-4492
▁nuclear	-4493
▁seeking	-4494
▁updated	-4495
▁contrast	-4496
▁external	-4497
▁happened	-4498
▁policies	-4499
▁velocity	-4500
▁efficiently	-4501
▁representation	-4502
");	-4503
bar	-4504
bre	-4505
cks	-4506
fig	-4507
ris	-4508
▁aw	-4509
▁tk	-4510
agon	-4511
iers	-4512
vere	-4513
ygen	-4514
your	-4515
▁mob	-4516
icing	-4517
izard	-4518
▁Alex	-4519
▁apps	-4520
▁bowl	-4521
▁edge	-4522
▁elif	-4523
▁trou	-4524
▁void	-4525
change	-4526
▁LAION	-4527
▁alone	-4528
▁hyper	-4529
▁instr	-4530
▁liter	-4531
▁stick	-4532
▁vegan	-4533
▁waves	-4534
ository	-4535
▁eating	-4536
▁unable	-4537
▁Example	-4538
▁android	-4539
▁keyword	-4540
▁plastic	-4541
▁becoming	-4542
▁stability	-4543
▁approximately	-4544
▁international	-4545
FT	-4546
Pro	-4547
edy	-4548
lik	-4549
▁Ag	-4550
▁fr	-4551
▁iP	-4552
ella	-4553
page	-4554
rees	-4555
▁cub	-4556
etime	-4557
pping	-4558
▁WebS	-4559
▁evil	-4560
▁skin	-4561
▁snow	-4562
▁util	-4563
▁Black	-4564
▁Click	-4565
▁Elect	-4566
▁Graph	-4567
▁absor	-4568
▁bread	-4569
▁carry	-4570
▁essay	-4571
▁habit	-4572
▁miles	-4573
▁roots	-4574
▁shall	-4575
▁therm	-4576
▁width	-4577
inating	-4578
▁butter	-4579
▁circum	-4580
▁compar	-4581
▁compil	-4582
▁income	-4583
▁injury	-4584
▁motion	-4585
▁muscle	-4586
▁paddle	-4587
▁stream	-4588
▁Machine	-4589
▁Regular	-4590
▁concent	-4591
▁genetic	-4592
▁planets	-4593
▁solving	-4594
▁survive	-4595
▁weights	-4596
▁National	-4597
▁overview	-4598
▁reliable	-4599
▁paragraph	-4600
▁therefore	-4601
▁approaches	-4602
▁blockchain	-4603
▁electronic	-4604
▁prioritize	-4605
▁profession	-4606
▁subjective	-4607
Cl	-4608
II	-4609
df	-4610
Int	-4611
[1]	-4612
off	-4613
rig	-4614
Base	-4615
etch	-4616
hing	-4617
ided	-4618
▁Its	-4619
▁Sol	-4620
▁mid	-4621
▁tru	-4622
▁unc	-4623
▁vot	-4624
crete	-4625
itter	-4626
plays	-4627
prise	-4628
ratic	-4629
▁Pros	-4630
▁Text	-4631
▁clar	-4632
▁copy	-4633
▁gets	-4634
▁grad	-4635
▁phen	-4636
▁sold	-4637
▁zero	-4638
anches	-4639
encing	-4640
points	-4641
▁cyber	-4642
▁hypot	-4643
▁label	-4644
▁rapid	-4645
▁rhyth	-4646
▁women	-4647
connect	-4648
▁extend	-4649
▁photos	-4650
▁status	-4651
standing	-4652
▁comment	-4653
▁illegal	-4654
▁outline	-4655
▁updates	-4656
▁abstract	-4657
▁flexible	-4658
▁included	-4659
▁carefully	-4660
▁classical	-4661
▁functional	-4662
▁impossible	-4663
▁established	-4664
▁opportunity	-4665
▁personalized	-4666
▁perspectives	-4667
▁	-4668
e	-4669
t	-4670
a	-4671
o	-4672
i	-4673
n	-4674
s	-4675
r	-4676
l	-4677
h	-4678
d	-4679
c	-4680
u	-4681
m	-4682
p	-4683
f	-4684
g	-4685
y	-4686
w	-4687
b	-4688
.	-4689
,	-4690
v	-4691
k	-4692
:	-4693
I	-4694
A	-4695
T	-4696
-	-4697
x	-4698
S	-4699
'	-4700
"	-4701
C	-4702
1	-4703
)	-4704
(	-4705
U	-4706
0	-4707
P	-4708
2	-4709
H	-4710
`	-4711
q	-4712
W	-4713
M	-4714
E	-4715
D	-4716
z	-4717
?	-4718
j	-4719
B	-4720
L	-4721
R	-4722
=	-4723
/	-4724
_	-4725
F	-4726
O	-4727
3	-4728
G	-4729
N	-4730
*	-4731
5	-4732
4	-4733
Y	-4734
;	-4735
[	-4736
]	-4737
6	-4738
9	-4739
!	-4740
