<unk>	0
<s>	0
</s>	0
:	-3.41162
▁.	-3.82425
s	-3.87507
r	-3.93876
▁A	-4.00047
ssistant	-4.07867
▁Use	-4.11028
▁है	-4.2245
▁,	-4.23143
▁	-4.47271
▁the	-4.48273
▁I	-4.5611
▁?	-4.62039
e	-4.64772
▁a	-4.70512
▁please	-4.84005
t	-4.89879
▁bat	-4.92255
ao	-4.93247
▁में	-4.95785
▁it	-4.9955
▁movie	-5.01103
▁हैं	-5.02673
े	-5.08938
'	-5.14135
▁to	-5.16146
ing	-5.17228
▁के	-5.19448
ed	-5.30572
ी	-5.32807
▁मुझे	-5.34755
▁को	-5.34865
▁is	-5.37816
ा	-5.38517
y	-5.38521
n	-5.41913
▁of	-5.421
▁mu	-5.4243
▁यह	-5.47171
▁नहीं	-5.48359
▁you	-5.49033
?	-5.50502
▁ja	-5.51647
▁मैं	-5.52269
▁और	-5.53796
jh	-5.53965
▁that	-5.544
ldi	-5.54431
▁yaar	-5.54746
▁bhai	-5.55794
▁!	-5.57742
▁क्या	-5.58291
▁was	-5.58536
▁का	-5.5909
d	-5.61013
▁वह	-5.61115
ra	-5.61172
▁कि	-5.6266
▁in	-5.64814
▁and	-5.6557
▁तो	-5.7021
ly	-5.71462
▁za	-5.72079
▁था	-5.74661
▁की	-5.763
ने	-5.79546
▁dos	-5.81023
▁like	-5.82966
▁ho	-5.833
▁main	-5.88751
▁be	-5.90201
▁से	-5.92333
▁भी	-5.98091
▁एक	-5.9876
▁इस	-6.07123
▁he	-6.1789
▁k	-6.21342
▁बहुत	-6.2218
▁but	-6.23328
▁for	-6.23723
▁हो	-6.24801
▁think	-6.25645
▁It	-6.26063
▁do	-6.29398
▁लिए	-6.31172
▁लगता	-6.31329
▁किया	-6.32437
m	-6.33074
▁पसंद	-6.34883
▁film	-6.35732
▁have	-6.37196
▁आप	-6.37937
▁good	-6.40049
▁अच्छा	-6.406
▁with	-6.40858
ut	-6.41932
▁i	-6.42092
on	-6.4216
▁on	-6.42505
▁हूँ	-6.43143
▁see	-6.43634
▁abo	-6.48419
▁hoo	-6.50645
▁कर	-6.50861
▁movies	-6.50957
▁so	-6.51908
▁thi	-6.52183
▁they	-6.52893
▁not	-6.56659
ya	-6.57818
en	-6.58144
▁s	-6.62387
▁बारे	-6.62399
▁The	-6.64108
▁ने	-6.65462
a	-6.65506
▁"	-6.66209
o	-6.66406
▁really	-6.6655
▁character	-6.67801
▁उस	-6.68235
▁जो	-6.70054
▁as	-6.70288
▁..	-6.70613
▁are	-6.71278
▁कुछ	-6.71647
▁पर	-6.7191
▁don	-6.72188
ई	-6.72347
▁करता	-6.73386
▁हाँ	-6.7523
▁थी	-6.7592
es	-6.76547
▁me	-6.79249
▁great	-6.82554
▁लेकिन	-6.83504
▁know	-6.85646
▁ek	-6.85741
tum	-6.87665
▁watch	-6.87681
▁what	-6.89022
▁वो	-6.89337
▁किस	-6.89539
▁too	-6.89944
▁Yes	-6.91056
▁play	-6.93432
ch	-6.9348
▁ही	-6.93885
▁मेर	-6.94213
▁his	-6.94397
▁love	-6.94607
▁scene	-6.9487
▁करने	-6.95091
st	-6.96426
▁रहा	-6.96972
▁one	-6.97438
▁would	-6.9994
▁ka	-7.01716
▁...	-7.03326
I	-7.03547
er	-7.04112
ty	-7.04138
▁H	-7.04756
▁out	-7.05376
▁तुम	-7.0725
▁interesting	-7.07741
▁just	-7.08792
▁how	-7.08957
▁जब	-7.09595
▁well	-7.09601
▁who	-7.10389
▁end	-7.10583
▁an	-7.10981
▁agree	-7.11105
ab	-7.11202
▁did	-7.11247
▁अपन	-7.12497
▁गया	-7.14605
▁ये	-7.14711
▁हां	-7.15908
▁aap	-7.16773
▁all	-7.1678
▁साथ	-7.16784
▁करते	-7.16802
▁at	-7.16821
▁काफी	-7.17654
▁sa	-7.18095
▁पता	-7.18107
▁time	-7.18626
▁there	-7.19573
le	-7.19777
▁kart	-7.19996
-	-7.20552
▁उसक	-7.20948
▁him	-7.21753
▁लगा	-7.21833
▁story	-7.22694
▁actor	-7.22752
▁chat	-7.23163
▁my	-7.23349
te	-7.23923
ish	-7.24173
न	-7.24639
▁up	-7.24675
▁go	-7.25556
▁Yeah	-7.26443
ों	-7.26518
▁has	-7.26563
▁part	-7.26572
very	-7.26758
▁can	-7.26953
▁कौन	-7.2945
ं	-7.296
▁अछ	-7.29881
को	-7.29917
▁al	-7.30309
▁saw	-7.31441
▁when	-7.33501
▁तरह	-7.34488
▁क्यों	-7.34965
▁कैस	-7.35187
▁sure	-7.35241
ना	-7.36067
▁What	-7.36072
▁हम	-7.36222
▁उसे	-7.3623
▁देखा	-7.36566
▁pret	-7.36642
▁Do	-7.37005
▁mor	-7.37866
▁Oh	-7.38117
▁hello	-7.38769
lso	-7.39031
▁T	-7.3918
▁st	-7.39715
▁enjoy	-7.39869
▁तुम्हें	-7.39871
▁if	-7.42049
▁kid	-7.42751
▁favorite	-7.43242
▁%	-7.43248
▁get	-7.43543
▁थे	-7.43816
tual	-7.44462
▁though	-7.44479
ce	-7.44778
▁fro	-7.44952
▁He	-7.46509
ve	-7.47516
ki	-7.48092
▁her	-7.48476
▁by	-7.49314
▁we	-7.50094
▁she	-7.505
▁jaw	-7.50756
▁yes	-7.50802
.	-7.51659
▁अच्छ	-7.52367
▁That	-7.53467
▁नाम	-7.5353
▁or	-7.53924
▁funny	-7.54105
▁Engl	-7.54742
▁thought	-7.54913
▁review	-7.55268
▁sound	-7.55416
bot	-7.55502
▁deta	-7.5603
alon	-7.56103
▁score	-7.56109
k	-7.56358
▁aur	-7.56732
▁b	-7.57174
▁mada	-7.57262
maj	-7.57376
hta	-7.57384
way	-7.57519
▁देखी	-7.57735
indi	-7.58251
▁उसके	-7.58276
▁क	-7.58774
▁या	-7.58774
▁जाता	-7.59361
▁seem	-7.59923
▁role	-7.6001
▁होगा	-7.61389
▁some	-7.62091
▁oh	-7.62302
▁help	-7.62767
▁ज्यादा	-7.63449
▁सकता	-7.63467
▁No	-7.63504
▁W	-7.63506
▁say	-7.63511
▁rating	-7.63511
▁any	-7.63768
▁उनक	-7.64847
▁them	-7.64886
कि	-7.65388
▁first	-7.65604
▁Hello	-7.66288
▁कितन	-7.66363
cause	-7.66568
▁हुआ	-7.67738
▁will	-7.68489
▁feel	-7.69392
ता	-7.69447
▁दो	-7.69612
aise	-7.71352
▁दिया	-7.72229
▁actual	-7.7232
▁C	-7.72602
▁other	-7.72752
▁lol	-7.7299
▁family	-7.72994
ill	-7.73276
▁जैस	-7.73861
▁am	-7.73958
▁S	-7.74411
▁yeah	-7.74547
▁were	-7.7461
▁your	-7.75031
w	-7.75418
▁यार	-7.75448
क	-7.75674
▁अगर	-7.76119
▁F	-7.7745
▁cool	-7.77719
ies	-7.77747
▁action	-7.77962
▁पहले	-7.78036
▁देख	-7.78389
▁want	-7.78531
▁So	-7.78671
ation	-7.78915
▁न	-7.7899
▁याद	-7.79369
▁their	-7.79481
र	-7.79977
▁work	-7.80144
▁बात	-7.80177
▁plot	-7.81002
▁करना	-7.8123
▁no	-7.81356
it	-7.81723
▁Rott	-7.81844
ि	-7.82045
▁man	-7.82978
i	-7.83523
▁guess	-7.83654
▁mad	-7.83658
se	-7.84258
▁कभी	-7.84411
▁comed	-7.84558
▁didn	-7.84564
▁होता	-7.84617
▁बड़	-7.84979
▁You	-7.85257
▁life	-7.85258
▁right	-7.85511
▁ha	-7.85885
▁tomato	-7.86132
▁name	-7.87036
▁आया	-7.87967
▁-	-7.88393
▁इतन	-7.88802
▁use	-7.89
▁kind	-7.89742
▁critics	-7.90306
he	-7.90532
S	-7.90842
▁lot	-7.90959
▁पे	-7.91088
h	-7.91176
world	-7.91772
▁way	-7.92233
abl	-7.92308
▁ऐसा	-7.92871
▁m	-7.93009
त	-7.9336
▁B	-7.93491
▁3	-7.93508
▁तक	-7.93817
▁tru	-7.93898
▁tho	-7.94484
▁best	-7.95335
▁dragon	-7.95342
▁book	-7.95846
ian	-7.96226
▁does	-7.9627
▁whi	-7.96469
▁रहे	-7.96489
ther	-7.96938
▁तुमने	-7.97034
▁remember	-7.97264
▁सकते	-7.97265
▁पास	-7.97273
▁Have	-7.97308
▁bas	-7.97328
ar	-7.97463
▁batman	-7.98928
un	-7.98982
▁d	-7.99353
ble	-7.9937
▁M	-7.99924
▁बढ़िया	-8.00253
▁Batman	-8.00254
▁old	-8.00499
al	-8.01109
▁got	-8.01175
▁R	-8.0128
▁guy	-8.01297
▁vi	-8.01631
▁people	-8.02296
▁e	-8.02365
ge	-8.02707
mart	-8.03345
▁कब	-8.03372
▁थोड़ा	-8.03409
▁li	-8.0385
▁prob	-8.04102
▁/	-8.04381
▁Tomato	-8.04382
▁try	-8.04404
▁new	-8.04698
▁देखने	-8.04777
▁read	-8.04889
el	-8.04966
▁hai	-8.0505
▁Hi	-8.05453
▁where	-8.05617
man	-8.05827
श	-8.0622
▁हुई	-8.06445
▁सही	-8.06707
▁real	-8.06903
be	-8.06963
▁लोग	-8.06991
स	-8.07047
▁ऐस	-8.07531
▁सभी	-8.07594
नों	-8.07724
▁इसमें	-8.07737
▁But	-8.0788
▁आ	-8.07996
ll	-8.08231
had	-8.0829
से	-8.08597
▁wonder	-8.08682
▁'	-8.08769
or	-8.09357
▁high	-8.09794
▁director	-8.09823
▁bad	-8.09872
▁long	-8.09981
▁म	-8.10817
(	-8.10912
▁rott	-8.10914
▁करती	-8.10957
▁बना	-8.11024
▁year	-8.11494
into	-8.11853
ो	-8.12405
▁even	-8.12547
म	-8.12957
▁ok	-8.13476
▁seek	-8.13583
▁सब	-8.14323
tic	-8.1491
▁document	-8.15159
▁un	-8.15294
ment	-8.1569
▁कहा	-8.1633
▁G	-8.16448
▁How	-8.16709
▁definitely	-8.1671
▁काम	-8.1734
▁direct	-8.17719
▁D	-8.17793
p	-8.17905
▁Bruce	-8.17921
का	-8.17959
▁Did	-8.17972
▁make	-8.18522
▁अभी	-8.19114
▁kar	-8.19283
is	-8.19353
▁cast	-8.19368
▁mo	-8.20263
▁)	-8.20427
f	-8.2073
ित	-8.21172
▁जिस	-8.21404
▁दूसर	-8.21585
▁animat	-8.21588
▁than	-8.21627
▁देखना	-8.21683
▁रही	-8.21884
ू	-8.22398
tter	-8.2244
▁And	-8.22491
▁fight	-8.22806
▁namaste	-8.22845
▁point	-8.22845
▁फिर	-8.22848
,	-8.23344
▁re	-8.23371
ever	-8.23592
▁cod	-8.23668
▁thing	-8.23849
nt	-8.24094
▁John	-8.24125
▁look	-8.2418
▁start	-8.24442
▁शायद	-8.25412
▁चाहिए	-8.25413
▁अब	-8.25421
ttle	-8.25583
▁10	-8.27151
▁day	-8.27328
D	-8.27336
x	-8.27538
th	-8.2757
l	-8.27585
▁P	-8.27784
▁sad	-8.27807
▁drama	-8.28052
▁सच	-8.28081
▁सोच	-8.28731
▁interest	-8.28825
▁wh	-8.28926
ince	-8.29448
▁superhero	-8.29454
▁hard	-8.29516
▁may	-8.29567
ikh	-8.29921
▁Movie	-8.30754
▁check	-8.30755
▁Hiccup	-8.3076
▁Well	-8.30786
▁same	-8.30817
vir	-8.31228
▁Wo	-8.31478
▁ब	-8.31548
▁could	-8.31973
ful	-8.3198
▁talk	-8.32138
▁here	-8.33271
▁war	-8.33452
▁big	-8.33481
▁job	-8.33538
▁give	-8.33685
▁Who	-8.33722
▁बार	-8.33896
▁haha	-8.34925
▁nice	-8.34963
▁animation	-8.35044
▁MOVIE	-8.36397
▁voice	-8.36397
▁Disney	-8.36398
▁हूं	-8.36409
▁सबसे	-8.36436
▁वे	-8.3644
▁now	-8.3647
▁पूर	-8.36546
▁over	-8.36753
sak	-8.37531
▁मै	-8.37627
▁t	-8.38207
ट	-8.38219
▁films	-8.38765
▁ले	-8.39068
▁रूप	-8.39344
▁ठ	-8.39509
▁बाद	-8.39538
▁acting	-8.39556
▁2	-8.39561
▁मार	-8.3964
▁fan	-8.3981
ीक	-8.3997
id	-8.40687
▁tell	-8.40865
▁superman	-8.40893
▁its	-8.40901
▁roman	-8.40904
▁किसी	-8.41625
नी	-8.41906
▁bit	-8.42282
z	-8.42291
▁उन्हों	-8.42378
▁find	-8.4249
▁सोचत	-8.42625
ic	-8.42999
special	-8.43001
▁p	-8.43005
▁पहल	-8.4331
in	-8.43602
द	-8.4366
’	-8.43931
▁साल	-8.44062
▁इसके	-8.44149
▁बन	-8.45168
▁robots	-8.45184
▁हुए	-8.45509
▁di	-8.45639
▁kill	-8.45794
▁type	-8.45823
▁music	-8.47089
▁उन्हे	-8.47111
▁तुम्हार	-8.47132
▁Ok	-8.4718
▁लग	-8.48688
▁वास्तव	-8.4874
▁human	-8.48742
▁something	-8.48789
के	-8.49153
thing	-8.49871
▁differen	-8.50395
▁surprise	-8.50395
▁should	-8.50396
▁parent	-8.50399
one	-8.50427
▁usual	-8.50632
▁most	-8.51071
other	-8.51473
▁J	-8.51523
▁बस	-8.51867
▁Superman	-8.52081
▁आपक	-8.52304
g	-8.52765
▁उन	-8.53733
▁super	-8.5376
▁:)	-8.53795
या	-8.541
▁heard	-8.54149
में	-8.54354
कर	-8.54942
ent	-8.55063
▁makes	-8.55079
▁लगत	-8.55364
▁idea	-8.55548
▁Iron	-8.55706
an	-8.55867
▁believe	-8.55973
▁mean	-8.56095
ion	-8.56433
▁take	-8.56611
▁They	-8.56898
▁friend	-8.57115
▁द्वारा	-8.57307
▁Mike	-8.57321
might	-8.57611
दार	-8.57753
me	-8.57923
▁haven	-8.58254
▁gets	-8.58492
▁dream	-8.5886
▁show	-8.58891
▁amaz	-8.58948
uch	-8.5897
▁समय	-8.59116
▁fun	-8.59127
▁मानता	-8.59164
ive	-8.59206
▁call	-8.59242
ious	-8.59284
▁कम	-8.59413
▁सुना	-8.59504
▁hero	-8.59515
▁line	-8.5969
▁both	-8.60328
▁बच्च	-8.60889
▁गए	-8.60954
▁यक	-8.60991
▁again	-8.60994
ज	-8.61027
c	-8.61033
▁जा	-8.61288
▁वाल	-8.6215
▁release	-8.62823
▁नमस्ते	-8.62823
▁सिर्फ	-8.62823
▁conversation	-8.62823
ेशा	-8.62825
▁genre	-8.6283
zz	-8.6285
▁होती	-8.62924
▁होते	-8.62992
ma	-8.63008
▁ख	-8.63601
fore	-8.63897
▁बता	-8.64362
re	-8.64491
▁inform	-8.64765
▁sequel	-8.64782
▁सा	-8.64826
▁आई	-8.64937
▁Tom	-8.64985
▁Are	-8.65064
▁back	-8.65097
▁quit	-8.65234
yan	-8.65784
▁doesn	-8.66293
▁O	-8.66357
ting	-8.66395
▁तब	-8.66686
▁last	-8.66717
▁off	-8.66835
▁उसको	-8.67304
▁To	-8.67491
▁fe	-8.67677
▁E	-8.67735
▁जरूर	-8.68626
▁Sebast	-8.68669
ous	-8.68718
हाँ	-8.69049
▁मिला	-8.69291
▁realize	-8.69468
ey	-8.69518
िक	-8.69715
ह	-8.69792
ally	-8.69811
की	-8.70124
side	-8.70447
▁चल	-8.70509
▁monster	-8.70685
▁Leonard	-8.70687
erg	-8.71533
5	-8.71678
▁Th	-8.7203
ब	-8.72115
▁Hey	-8.72389
▁कौनस	-8.7247
ney	-8.72538
▁Me	-8.72591
▁Turing	-8.72778
▁cra	-8.73249
▁वाली	-8.73281
▁lea	-8.73809
▁ga	-8.73928
ल	-8.7407
▁c	-8.74137
▁w	-8.74317
▁जान	-8.74321
▁Le	-8.74323
▁बिल्कुल	-8.74861
▁जन्म	-8.74871
▁musical	-8.74906
▁else	-8.74963
▁उसमें	-8.75018
▁Man	-8.75128
book	-8.75627
▁प	-8.7674
▁ratings	-8.76937
ruce	-8.77014
two	-8.77017
▁en	-8.77078
▁भारत	-8.77139
▁set	-8.77246
▁There	-8.77412
▁im	-8.77988
▁स	-8.78474
AI	-8.79049
▁recommend	-8.79219
ते	-8.79967
ां	-8.80322
ry	-8.81215
▁girl	-8.81471
▁school	-8.81493
▁someone	-8.81546
▁ज	-8.81627
▁young	-8.81695
▁need	-8.8189
व	-8.81891
ें	-8.81923
▁Sull	-8.82278
age	-8.82438
▁live	-8.82939
▁दु	-8.82946
▁मिल	-8.82985
▁imagin	-8.83143
▁n	-8.83642
▁opinion	-8.83776
▁famili	-8.8381
▁wait	-8.83835
ither	-8.83858
onder	-8.83906
▁सोचा	-8.84576
मी	-8.84802
self	-8.84975
ne	-8.85273
C	-8.85859
▁दिन	-8.86075
▁जहा	-8.86084
▁Robert	-8.86135
प	-8.86163
ार	-8.86181
▁वैस	-8.86649
▁Does	-8.86736
लिए	-8.86813
▁v	-8.86928
▁बोल	-8.8697
ण	-8.87331
▁आज	-8.88047
▁Haha	-8.88513
read	-8.88546
▁Kevin	-8.88553
▁Gosling	-8.88578
▁Hugh	-8.88582
▁होगी	-8.88613
▁after	-8.88703
▁mind	-8.88803
ough	-8.89016
▁l	-8.89065
ise	-8.89198
▁hi	-8.892
us	-8.89554
्य	-8.89581
ard	-8.89599
▁Nic	-8.89621
T	-8.89849
rio	-8.89885
▁व	-8.90391
ance	-8.90612
ay	-8.90672
▁Monster	-8.91025
▁next	-8.91026
▁villain	-8.91029
▁लिया	-8.91033
▁sense	-8.91054
▁करेंगे	-8.91083
ला	-8.91214
ck	-8.91297
▁every	-8.91645
▁worth	-8.91889
य	-8.92181
्	-8.92181
all	-8.92557
▁अ	-8.92597
▁Downey	-8.93564
▁Frozen	-8.93564
▁Zuckerb	-8.93564
▁second	-8.93564
▁Elsa	-8.93564
▁adult	-8.93564
▁Metacritic	-8.93572
▁जाते	-8.93633
▁happen	-8.93696
मत	-8.93906
▁yet	-8.93916
▁came	-8.93924
▁IS	-8.93934
▁ला	-8.94035
ver	-8.94078
▁कह	-8.94525
od	-8.94557
▁robot	-8.9519
▁Ja	-8.95319
u	-8.95351
▁समझ	-8.95554
▁विश्व	-8.96093
uff	-8.96119
▁प्र	-8.96119
HO	-8.96123
woman	-8.9614
▁relationship	-8.96168
▁develop	-8.96168
▁मुख्य	-8.96169
▁children	-8.9617
▁minute	-8.96172
▁हवा	-8.96174
▁mention	-8.9618
▁shark	-8.96182
▁किये	-8.96256
▁She	-8.96411
▁dreams	-8.96541
हीं	-8.96665
▁comic	-8.9668
▁hope	-8.97065
▁move	-8.97399
b	-8.98606
▁सह	-8.98648
▁DiCap	-8.98842
▁बाहर	-8.98842
▁theater	-8.98859
▁Y	-8.9889
ड	-8.9921
▁दे	-8.99976
▁ह	-9.00624
son	-9.00671
▁happ	-9.01459
▁keep	-9.01589
▁सकती	-9.0159
▁message	-9.01591
▁honest	-9.01593
▁okay	-9.01624
▁realit	-9.01722
▁यहाँ	-9.01782
▁अंत	-9.01861
▁u	-9.02062
▁मिली	-9.02178
ight	-9.02242
▁लगी	-9.02418
▁age	-9.02618
est	-9.02973
▁ne	-9.02986
though	-9.03368
▁ever	-9.03726
भ	-9.04411
▁ग	-9.04413
▁through	-9.04414
▁decide	-9.04427
▁चाहता	-9.04427
▁classic	-9.04433
▁box	-9.04437
ler	-9.0449
wood	-9.0452
▁आता	-9.04535
▁train	-9.04546
v	-9.04614
▁हर	-9.04635
▁down	-9.04635
▁देते	-9.04651
▁May	-9.04756
▁मर	-9.04852
▁become	-9.04974
out	-9.05139
0	-9.05465
ary	-9.05642
ah	-9.05978
▁सार	-9.06178
▁scar	-9.06658
no	-9.06721
ulk	-9.07244
▁स्थित	-9.07322
▁serious	-9.07322
▁बेहतर	-9.07322
▁Stark	-9.07325
▁dark	-9.07345
▁करूँगा	-9.07346
▁बनाया	-9.07383
▁perfect	-9.07391
▁disney	-9.07395
▁own	-9.07401
▁करूंगा	-9.07473
▁हुईं	-9.0751
▁बुरा	-9.0753
▁break	-9.07562
▁cute	-9.07577
▁Em	-9.07588
ग	-9.07752
▁person	-9.07803
▁सारे	-9.07965
▁stars	-9.09079
ta	-9.09266
▁come	-9.09499
▁प्यार	-9.09844
▁करें	-9.09945
▁miss	-9.09953
upp	-9.1017
dow	-9.10308
▁discuss	-9.10316
▁wow	-9.10316
3	-9.10318
▁कोशि	-9.10427
▁low	-9.10427
▁गई	-9.10444
▁song	-9.10449
ant	-9.10683
▁Whi	-9.10954
▁thanks	-9.11086
nds	-9.11325
▁con	-9.11868
istic	-9.12101
▁fa	-9.12265
▁जिसक	-9.12317
rage	-9.12612
▁Not	-9.13203
▁scare	-9.13272
▁मिले	-9.13287
▁Good	-9.13381
▁sister	-9.13403
▁अधिक	-9.13406
▁जानत	-9.13416
▁us	-9.13429
▁understand	-9.13451
▁awesome	-9.13515
▁भाषा	-9.13523
▁problem	-9.13547
▁Ra	-9.13845
▁shows	-9.13852
tion	-9.13943
eath	-9.13953
▁इन	-9.14015
▁critic	-9.14074
/100	-9.14282
▁hit	-9.14464
▁मान	-9.14854
▁द	-9.15108
▁must	-9.15342
ence	-9.15409
▁turn	-9.1551
▁Sou	-9.15983
round	-9.16297
▁4	-9.16347
▁ave	-9.16467
ton	-9.16547
▁200	-9.16583
▁follow	-9.16587
▁Steve	-9.16665
▁struggle	-9.16669
▁हुवा	-9.16751
hilar	-9.16941
▁let	-9.1715
▁special	-9.1717
पर	-9.17381
▁bu	-9.17562
▁दी	-9.17764
wn	-9.1814
▁ma	-9.18283
▁seeing	-9.1885
▁ता	-9.19122
▁excit	-9.19303
▁7	-9.19877
▁attack	-9.19877
▁दिलचस्प	-9.19879
▁Jackman	-9.19879
▁CinemaScore	-9.19879
▁चाहते	-9.19882
▁importan	-9.19882
▁Face	-9.19885
▁team	-9.19896
▁महान	-9.19905
▁iron	-9.19929
▁cheat	-9.1997
▁cinema	-9.19976
ig	-9.20033
▁j	-9.20033
▁God	-9.20095
▁N	-9.20162
▁heart	-9.20475
▁change	-9.20515
▁20	-9.20577
Y	-9.20581
▁experience	-9.20658
▁award	-9.20695
थ	-9.20726
घर	-9.20734
▁ना	-9.20818
▁pr	-9.21144
निया	-9.21222
▁हों	-9.2141
▁199	-9.21975
ate	-9.22004
ell	-9.22097
▁total	-9.22176
▁त	-9.22281
tsby	-9.2321
▁Univers	-9.23279
▁actress	-9.23279
▁Hanks	-9.23279
▁choice	-9.23281
▁thriller	-9.23322
▁Carrey	-9.23371
▁expect	-9.23479
▁देता	-9.23535
▁चीज	-9.23639
▁कहान	-9.23687
▁friends	-9.2385
▁Avenger	-9.23855
▁comp	-9.23982
तर	-9.24916
▁star	-9.25514
ie	-9.25554
B	-9.25774
▁नि	-9.25793
day	-9.26068
ick	-9.26463
▁child	-9.26797
▁यकीन	-9.26814
▁fall	-9.26859
▁देखते	-9.26868
▁जाती	-9.2687
▁Sha	-9.26943
▁dur	-9.27147
ानी	-9.27577
ंकि	-9.27662
▁V	-9.2782
▁For	-9.27892
▁ई	-9.28204
▁f	-9.28628
▁मिलत	-9.28783
▁फ	-9.28841
pe	-9.28969
▁toy	-9.29288
ती	-9.29434
▁hey	-9.2971
▁Pi	-9.30093
▁found	-9.30333
▁जी	-9.30374
▁Great	-9.3045
▁question	-9.3045
▁गुरु	-9.3045
tween	-9.30451
▁खुद	-9.30453
▁wife	-9.30457
▁background	-9.30459
▁learn	-9.30466
▁Story	-9.30471
▁princess	-9.30472
▁everyone	-9.30484
▁वि	-9.30495
▁करके	-9.30785
▁night	-9.30861
▁Mich	-9.31013
til	-9.31072
▁da	-9.31363
▁Ben	-9.31388
▁final	-9.31641
▁Christ	-9.31763
▁stor	-9.31788
▁car	-9.32017
cial	-9.32124
▁जाने	-9.32165
ana	-9.32184
▁La	-9.32365
▁yea	-9.32375
up	-9.32451
रा	-9.32727
▁लिख	-9.32788
▁L	-9.32831
ception	-9.32915
▁We	-9.33016
िया	-9.33023
most	-9.33119
2	-9.33469
eman	-9.33886
▁मो	-9.34206
▁reason	-9.34239
▁deal	-9.34254
▁LA	-9.34268
▁sorry	-9.34298
▁suit	-9.34321
▁Whe	-9.34413
▁min	-9.34589
यु	-9.34642
▁late	-9.34702
्र	-9.34721
▁humo	-9.34727
ru	-9.34733
▁Anna	-9.34745
▁mom	-9.34803
AP	-9.34875
▁केलिए	-9.35138
▁र	-9.35339
▁Real	-9.35451
▁इसी	-9.35479
G	-9.35549
7	-9.35772
▁code	-9.35968
8	-9.36001
▁save	-9.36002
▁fact	-9.36009
ten	-9.36252
ES	-9.36308
ward	-9.36552
▁15	-9.36621
वर	-9.36646
▁appreciate	-9.36772
▁In	-9.36877
ter	-9.36934
rank	-9.36998
less	-9.37211
esse	-9.37271
▁इ	-9.37329
lot	-9.374
▁personal	-9.37484
▁act	-9.37639
▁Al	-9.37724
▁Just	-9.38089
▁Dragon	-9.38176
▁Malefic	-9.38176
▁accept	-9.38176
▁remind	-9.38176
▁पढ़	-9.38176
▁बोहत	-9.38176
▁figure	-9.38176
▁paragraph	-9.38177
▁escape	-9.38183
▁भूल	-9.38184
इव	-9.38187
▁Kei	-9.38191
▁sometime	-9.38193
▁member	-9.38194
▁wick	-9.382
▁steel	-9.38204
▁क्षेत्र	-9.38219
▁fel	-9.38246
▁लगेगा	-9.38257
▁America	-9.38266
▁Ga	-9.38474
▁US	-9.38503
▁क्यो	-9.38566
▁5	-9.3867
▁करो	-9.3868
▁original	-9.38755
▁critical	-9.38845
▁fair	-9.38902
रे	-9.38904
ions	-9.39914
right	-9.40259
▁आद	-9.40269
▁ए	-9.40332
▁पि	-9.40621
▁wasn	-9.40753
▁pa	-9.40764
ada	-9.40833
line	-9.41184
▁च	-9.41399
▁hear	-9.42115
▁स्थाप	-9.42275
▁historical	-9.42278
▁murder	-9.4228
▁place	-9.42283
▁अलग	-9.42284
▁under	-9.42295
▁detail	-9.42297
▁house	-9.42311
▁title	-9.42338
▁लगे	-9.42392
▁करेगा	-9.4242
▁boy	-9.42465
▁Tony	-9.4249
▁देखता	-9.42512
▁stand	-9.42522
▁हाला	-9.42549
▁head	-9.42639
▁game	-9.42651
6	-9.42748
▁son	-9.42765
▁face	-9.42795
▁pay	-9.42798
रण	-9.42972
ike	-9.43051
vel	-9.43119
▁Ma	-9.43203
▁अर	-9.43308
सा	-9.43377
ork	-9.43406
▁Thanks	-9.43428
▁य	-9.43936
▁Can	-9.44168
▁My	-9.44185
▁writ	-9.44366
▁relate	-9.44441
▁भ	-9.4459
ok	-9.44624
वल	-9.45112
▁care	-9.45355
▁god	-9.4552
▁मज	-9.45721
दा	-9.4629
nteresting	-9.46387
होत	-9.46532
ृत्	-9.46549
▁छोट	-9.46549
▁छोड़	-9.46549
▁student	-9.46549
▁histor	-9.4655
▁Eisenberg	-9.46553
▁animal	-9.46553
▁वर्ष	-9.46556
edict	-9.46567
▁शुर	-9.46576
▁लेते	-9.46595
olut	-9.46597
▁Wick	-9.46615
▁कहते	-9.46666
▁डर	-9.4669
▁sport	-9.46699
any	-9.46721
▁basic	-9.46786
▁com	-9.46816
▁New	-9.46943
▁Sto	-9.46972
▁put	-9.47009
▁जानता	-9.47289
▁win	-9.47407
aught	-9.47657
▁Be	-9.47834
▁सं	-9.4791
▁h	-9.47983
ice	-9.48096
▁लिखा	-9.48219
▁बो	-9.48533
▁19	-9.4862
▁le	-9.49365
▁All	-9.49522
ु	-9.49586
▁co	-9.49924
▁mak	-9.49953
▁fit	-9.50112
फल	-9.50183
▁St	-9.5065
▁Or	-9.50907
▁ago	-9.50932
▁deserve	-9.51014
▁युद्ध	-9.51014
▁weird	-9.51014
▁Mia	-9.51014
▁portray	-9.51015
▁article	-9.51015
▁शहर	-9.51016
▁chance	-9.51016
▁भाग	-9.51019
▁2013	-9.51019
▁WWII	-9.51028
▁moder	-9.51033
▁Marvel	-9.51034
▁steal	-9.51047
▁inspir	-9.51059
▁वैज्ञानिक	-9.51063
▁finish	-9.51065
▁पाया	-9.51129
▁moment	-9.51145
▁Game	-9.512
▁ऊ	-9.51215
▁Fre	-9.51271
▁froz	-9.51287
▁वहाँ	-9.51306
ize	-9.51591
▁moon	-9.5164
ँ	-9.5168
lberg	-9.51735
▁fo	-9.51806
oothless	-9.51862
ca	-9.52083
▁land	-9.52128
▁सी	-9.52234
mas	-9.52709
R	-9.52862
venge	-9.52908
prio	-9.53259
▁write	-9.53352
▁सुन	-9.5366
▁bye	-9.53679
98	-9.5379
ली	-9.54231
▁pi	-9.5447
▁1	-9.54511
▁Ve	-9.54623
▁tom	-9.55072
▁K	-9.55411
▁info	-9.55686
▁Christophe	-9.55688
▁मतलब	-9.55688
▁destroy	-9.55688
▁normal	-9.55689
▁spoil	-9.55691
▁बीच	-9.55691
▁joke	-9.55693
▁beaut	-9.55696
▁वाप	-9.55697
▁league	-9.55699
▁Steel	-9.55702
▁catch	-9.55702
▁Pro	-9.5572
▁luck	-9.55723
and	-9.55758
▁cour	-9.55763
▁power	-9.55774
▁राजध	-9.55941
▁अच्	-9.55942
▁supposed	-9.5595
▁sort	-9.55989
bab	-9.55999
port	-9.56019
▁general	-9.56128
▁peri	-9.56149
▁alone	-9.56376
▁चला	-9.56794
▁du	-9.56801
▁Brit	-9.56804
ple	-9.56824
gg	-9.57086
▁लड़क	-9.57224
H	-9.57416
▁Sur	-9.57532
▁श	-9.576
▁पा	-9.5799
▁जिसे	-9.58087
▁LI	-9.58337
fli	-9.58434
ीन	-9.5854
ले	-9.58816
ए	-9.58831
▁em	-9.5884
▁Chris	-9.58843
KE	-9.58961
▁यही	-9.58971
end	-9.59067
कार	-9.59067
▁connect	-9.59365
off	-9.59424
ball	-9.59445
rue	-9.59489
▁Knightl	-9.59498
A	-9.59521
ED	-9.59856
लक	-9.60142
▁free	-9.60227
▁U	-9.60296
tal	-9.6039
efinitely	-9.60552
▁नही	-9.60553
▁FILM	-9.60591
▁League	-9.60591
▁लगभग	-9.60591
▁Krist	-9.60592
▁Fury	-9.60597
▁जितन	-9.606
▁Spi	-9.6062
▁setting	-9.60665
▁foo	-9.60673
▁Scare	-9.60675
▁fear	-9.60684
▁add	-9.60685
▁pick	-9.60696
▁typical	-9.60705
▁अन्ना	-9.60711
▁aspect	-9.60863
राय	-9.61141
▁fairy	-9.6118
▁lead	-9.61363
▁complete	-9.61428
E	-9.6165
lly	-9.61826
▁se	-9.6228
▁बाक	-9.62368
▁va	-9.62387
om	-9.6248
led	-9.62631
▁रह	-9.62651
▁sha	-9.62852
▁fi	-9.6307
▁निकल	-9.6307
ड़	-9.63719
ness	-9.63886
▁g	-9.63939
92	-9.63961
1	-9.6402
fi	-9.64114
ain	-9.64122
▁ste	-9.64197
▁ली	-9.64286
दि	-9.6454
action	-9.64559
▁हा	-9.64682
ke	-9.6473
ीदा	-9.64841
land	-9.64954
▁die	-9.65119
▁Po	-9.65149
anic	-9.65263
my	-9.65426
▁danc	-9.65489
▁Nev	-9.65654
मालूम	-9.65747
▁drug	-9.65747
▁Zootopia	-9.65747
▁small	-9.65747
▁forgot	-9.65748
▁Cumberba	-9.65748
▁computer	-9.65748
▁depend	-9.65749
▁फिल्म	-9.65749
▁difficult	-9.6575
▁week	-9.65751
▁incredibl	-9.65754
▁Jim	-9.65756
ालय	-9.65775
▁strong	-9.65775
▁Harr	-9.65827
▁Mc	-9.65846
▁run	-9.65872
तौर	-9.65872
▁रहता	-9.65885
▁leave	-9.6589
▁होंगे	-9.65898
▁असल	-9.66013
▁spy	-9.66056
▁किए	-9.6614
▁राज्य	-9.66191
▁prefer	-9.66225
▁One	-9.66239
▁मजा	-9.66278
▁fam	-9.66405
▁Rach	-9.66418
▁Se	-9.66535
greed	-9.66584
shan	-9.66605
atch	-9.66735
▁ship	-9.66808
▁लो	-9.66834
▁atten	-9.6684
lfr	-9.66854
ine	-9.66914
▁hate	-9.67434
ohn	-9.67833
▁ye	-9.67906
च	-9.68173
▁colle	-9.68265
▁far	-9.68556
ER	-9.68633
organ	-9.68939
▁tri	-9.68946
▁response	-9.69072
वा	-9.69189
▁office	-9.69248
▁hav	-9.69565
▁हे	-9.69668
▁अल	-9.69711
ool	-9.69778
▁top	-9.69802
mes	-9.69981
xa	-9.70026
़	-9.70569
▁Inc	-9.70611
aine	-9.70625
ount	-9.70863
each	-9.7115
०	-9.71158
▁success	-9.7116
▁effect	-9.71183
▁excelle	-9.71183
▁group	-9.71183
▁आखिर	-9.71183
▁खयाल	-9.71183
▁reveal	-9.71183
▁water	-9.71183
▁fraternit	-9.71183
▁rock	-9.71183
▁version	-9.71183
▁machin	-9.71184
▁rich	-9.71184
▁हिस्स	-9.71184
▁pot	-9.71186
▁grow	-9.71187
▁travel	-9.71188
▁गये	-9.71189
ential	-9.71192
▁mysterious	-9.71195
ecent	-9.71197
▁mix	-9.71208
Score	-9.71214
▁enem	-9.71215
▁दोस्त	-9.71215
▁वाक	-9.71216
▁आती	-9.71229
▁Loki	-9.71239
▁leader	-9.71325
▁christ	-9.71386
▁बेट	-9.71416
▁sno	-9.71581
ास	-9.71609
▁बदल	-9.71685
uring	-9.71817
ique	-9.71821
ctor	-9.71836
▁class	-9.71885
W	-9.71897
▁14	-9.72007
▁Jos	-9.72024
▁aw	-9.72081
▁aff	-9.72101
ark	-9.72198
▁देने	-9.72215
▁दिख	-9.72327
▁बच	-9.72584
▁Lo	-9.72838
▁Any	-9.72854
▁राज	-9.72963
ind	-9.73114
▁Mar	-9.7377
sion	-9.74132
▁मे	-9.74276
▁our	-9.74407
▁मु	-9.7446
uth	-9.74566
प्त	-9.74632
lan	-9.74739
F	-9.74924
▁univers	-9.75008
io	-9.75459
K	-9.75518
ship	-9.75726
▁गा	-9.76268
ub	-9.76761
equel	-9.76776
HIS	-9.76854
▁किलोमीटर	-9.76931
▁ज़रूर	-9.76931
▁धन्यवाद	-9.76931
▁बिलकुल	-9.76931
▁Sandra	-9.76931
▁दौरा	-9.76931
▁marvel	-9.76931
▁ruin	-9.76932
▁Legend	-9.76933
▁series	-9.76934
▁women	-9.76935
▁LOL	-9.76936
▁Hmm	-9.76936
▁उतन	-9.76936
▁Gotham	-9.76937
▁भारतीय	-9.76939
▁निर्	-9.7694
▁बताओ	-9.76941
▁performance	-9.76942
▁technolog	-9.76943
▁roo	-9.76949
▁Dunkirk	-9.76952
▁recent	-9.76955
▁Lol	-9.76964
▁compare	-9.76973
▁Nolan	-9.76981
▁twist	-9.76982
▁toothless	-9.76991
▁दृश्य	-9.76994
▁popular	-9.76995
▁FB	-9.77001
▁memor	-9.77005
▁बिना	-9.77013
THE	-9.77036
▁देखूंगा	-9.77063
▁fiction	-9.77067
▁trap	-9.77113
▁Allie	-9.77118
▁कहता	-9.77124
▁Gal	-9.77137
▁lower	-9.77162
59	-9.77183
▁Henr	-9.77199
▁bet	-9.77249
▁पुरान	-9.77421
▁direction	-9.77718
▁today	-9.77896
▁site	-9.78032
▁Fer	-9.78096
▁cause	-9.78219
▁Re	-9.79175
▁आपस	-9.79279
▁Vi	-9.79307
eft	-9.79539
ख	-9.7957
▁पड़	-9.80738
ng	-9.80747
▁दिखा	-9.80913
▁ओ	-9.81145
▁आये	-9.81465
bod	-9.81875
back	-9.81943
flec	-9.82116
ped	-9.82196
by	-9.82324
ाँ	-9.82425
▁सम्	-9.82442
▁fin	-9.82676
▁थोड़	-9.82712
▁beach	-9.82965
१	-9.83004
artha	-9.83025
▁concept	-9.83031
▁criminal	-9.83031
▁जगह	-9.83031
▁मुश्किल	-9.83031
▁screen	-9.83031
▁गयी	-9.83031
▁camp	-9.83031
▁beginning	-9.83031
▁open	-9.83032
▁safe	-9.83035
▁task	-9.83039
▁German	-9.83052
▁Night	-9.83054
▁आवाज	-9.83062
▁enter	-9.83066
▁topic	-9.83087
▁spin	-9.83122
▁battle	-9.83133
▁page	-9.83144
▁Z	-9.8315
▁cop	-9.8318
▁Some	-9.83235
ugh	-9.83244
▁ve	-9.83252
▁tale	-9.83301
▁close	-9.83326
▁involve	-9.83339
▁एस	-9.8343
▁rescue	-9.83451
▁Ca	-9.83517
ुक	-9.8372
▁key	-9.83829
▁full	-9.83903
▁Lia	-9.83973
▁हमार	-9.84005
▁Ol	-9.84034
▁Was	-9.8416
mit	-9.84227
▁Ev	-9.84281
▁less	-9.84784
▁ba	-9.84959
▁ओह	-9.85043
▁touch	-9.85045
▁officer	-9.85281
j	-9.85344
▁कार	-9.85445
▁विच	-9.85835
▁la	-9.85893
▁impressi	-9.85902
▁सुनन	-9.8594
िन	-9.85969
▁मत	-9.86128
▁sing	-9.86909
▁Lan	-9.87008
▁Car	-9.87104
▁scarer	-9.87266
▁Pa	-9.87298
▁starr	-9.87305
▁sub	-9.8747
ead	-9.87521
ws	-9.87558
am	-9.87607
▁adopt	-9.87736
▁fla	-9.87903
▁194	-9.88209
tch	-9.88283
ियों	-9.88327
crow	-9.88342
▁fai	-9.88362
new	-9.88506
▁cas	-9.88575
der	-9.8861
ft	-9.88635
री	-9.88845
▁cit	-9.8897
त्म	-9.89131
▁cou	-9.89133
▁suppose	-9.8916
orld	-9.89247
▁मन	-9.8927
▁जिम	-9.8931
▁Af	-9.89398
range	-9.89437
▁count	-9.89458
▁million	-9.89491
▁संस्था	-9.89526
▁Bullock	-9.89526
▁protect	-9.89526
▁आधार	-9.89526
▁आश्चर्य	-9.89526
▁Beaut	-9.89526
▁support	-9.89527
▁धर्म	-9.89527
evin	-9.89528
▁खुश	-9.89532
▁partner	-9.89537
▁2010	-9.89538
▁Timberlake	-9.89538
▁Like	-9.89543
▁exactly	-9.8955
▁sleep	-9.89576
▁Yea	-9.8959
▁appear	-9.89598
▁easi	-9.89608
▁आते	-9.89621
▁adventure	-9.89677
▁लंबा	-9.89697
▁Russian	-9.89719
▁आम	-9.89726
▁huge	-9.8974
▁post	-9.89767
▁feature	-9.89804
▁board	-9.89836
▁pass	-9.89879
▁Almighty	-9.89888
▁kick	-9.89913
▁Fro	-9.89978
▁जीवन	-9.89981
zel	-9.8999
▁इसने	-9.90164
LY	-9.90176
▁Ro	-9.90201
▁elements	-9.90229
▁stu	-9.90299
▁ट	-9.90348
▁rest	-9.90378
gue	-9.90419
ld	-9.90439
▁magic	-9.90442
▁Go	-9.90485
▁खेल	-9.90496
▁fly	-9.90506
egal	-9.90634
cor	-9.90644
▁Sam	-9.90739
ाई	-9.90749
▁sou	-9.90809
▁Luth	-9.90873
▁air	-9.90937
दर	-9.91377
▁wor	-9.91413
LE	-9.91414
▁cha	-9.91566
▁लड़ा	-9.92323
band	-9.92504
▁park	-9.92743
▁बे	-9.92755
ओं	-9.92799
५	-9.93021
long	-9.93211
पक	-9.93224
▁receive	-9.935
▁करे	-9.9351
ley	-9.93512
गो	-9.93544
ctual	-9.93797
▁reven	-9.94328
सी	-9.94399
▁per	-9.94687
श्चि	-9.94738
▁pro	-9.94895
▁wouldn	-9.94908
dica	-9.94967
ड़ी	-9.95
▁Wh	-9.95011
मान	-9.95063
▁Ab	-9.95288
worth	-9.95302
where	-9.95305
mbo	-9.95383
fan	-9.95417
बार	-9.95507
ही	-9.95761
▁giv	-9.95809
▁Eve	-9.96008
▁thre	-9.96038
▁इक	-9.96094
ड़ा	-9.96242
▁हौ	-9.96409
▁perform	-9.96461
+	-9.96473
▁ROBOT	-9.96473
▁capture	-9.96473
▁system	-9.96473
▁Network	-9.96476
▁शार्क	-9.96476
▁view	-9.96476
▁villian	-9.96478
▁पड़ेगा	-9.96478
▁nu	-9.96484
▁pop	-9.96491
▁half	-9.96495
▁दिखाया	-9.965
▁evi	-9.96515
▁complex	-9.96544
▁describe	-9.9655
▁personalit	-9.96567
▁storyline	-9.96601
▁singer	-9.96624
▁जे	-9.96628
▁stay	-9.96666
▁देखो	-9.96718
▁Bal	-9.96786
▁Bill	-9.96817
▁bull	-9.96997
▁रहते	-9.97045
▁won	-9.9706
ground	-9.97106
▁fighter	-9.97139
han	-9.97168
▁couldn	-9.9734
▁आग	-9.97366
▁dis	-9.97505
icha	-9.97665
▁देश	-9.97666
▁missi	-9.97697
M	-9.977
▁War	-9.981
▁rate	-9.98159
ile	-9.98167
▁पैस	-9.98204
▁वा	-9.98644
▁bor	-9.98669
वान	-9.98669
▁27	-9.98678
▁poli	-9.989
▁ill	-9.98909
N	-9.99045
र्ग	-9.992
लो	-9.99365
गी	-9.9981
▁Co	-9.99855
▁ड	-10.0028
मा	-10.0033
▁प्रा	-10.0034
▁Jon	-10.0047
▁impress	-10.0051
▁assume	-10.0082
▁beh	-10.0098
▁RO	-10.013
गा	-10.0137
▁lik	-10.0154
▁forget	-10.0157
▁Nee	-10.016
▁cl	-10.0169
▁उ	-10.0171
▁197	-10.0183
▁Thank	-10.0184
▁शा	-10.0198
ould	-10.0223
ै	-10.0225
rou	-10.0261
४	-10.0274
फ़	-10.0277
ाव	-10.028
ze	-10.0294
▁ol	-10.0306
▁Bu	-10.031
rsh	-10.0311
▁Ah	-10.0328
lie	-10.0337
L	-10.0352
▁news	-10.0372
uck	-10.0374
▁8	-10.039
▁दिल	-10.0392
▁सर	-10.0393
▁certain	-10.0394
▁DVD	-10.0394
▁confront	-10.0394
▁design	-10.0394
▁entire	-10.0394
▁technical	-10.0394
▁Ruffal	-10.0394
▁prayer	-10.0394
▁consider	-10.0394
▁correct	-10.0394
▁funnie	-10.0394
▁Falcone	-10.0394
▁तुझ	-10.0394
▁2011	-10.0394
▁prison	-10.0395
▁credit	-10.0395
▁number	-10.0395
▁join	-10.0396
७	-10.0396
▁अन्य	-10.0396
▁कुल	-10.0397
▁surprising	-10.0397
▁paper	-10.0398
▁दूर	-10.0399
ड़े	-10.0399
14	-10.0401
▁conflic	-10.0401
sling	-10.0401
▁comment	-10.0401
▁slow	-10.0401
▁Mean	-10.0401
▁बताया	-10.0402
▁produce	-10.0403
unter	-10.0404
▁महि	-10.0404
▁present	-10.0405
यन	-10.0407
▁जरूरत	-10.0408
▁knight	-10.0408
▁entertaining	-10.0411
ND	-10.0412
▁56	-10.0413
▁Holly	-10.0413
▁dry	-10.0415
▁लेता	-10.0418
▁२	-10.0418
▁date	-10.042
▁तीन	-10.0422
▁meet	-10.0426
▁outside	-10.0427
▁लिये	-10.0428
hole	-10.0428
▁fur	-10.043
▁los	-10.043
▁OK	-10.0432
▁bring	-10.0443
▁pix	-10.0448
▁anyway	-10.0452
86	-10.046
▁successful	-10.047
स्त	-10.0471
▁sent	-10.048
.9	-10.0485
ुर	-10.049
▁Got	-10.049
▁6	-10.0492
▁inter	-10.0497
▁list	-10.0502
ster	-10.0521
geni	-10.0527
▁natural	-10.0536
89	-10.0541
▁offer	-10.0549
▁Oher	-10.0563
▁inst	-10.0575
▁पी	-10.0617
ga	-10.0631
न्द्र	-10.0634
▁Dar	-10.0641
ir	-10.0641
▁sp	-10.0641
▁gre	-10.0658
gan	-10.0663
▁Let	-10.0667
▁inten	-10.0679
pp	-10.0696
▁comm	-10.0698
48	-10.0701
▁सम	-10.0709
ैर	-10.0725
▁trie	-10.0741
rk	-10.0747
▁Pe	-10.0749
▁बहन	-10.0774
▁अन	-10.0774
100	-10.0776
rew	-10.0789
▁ex	-10.081
ayne	-10.0815
gle	-10.0818
eld	-10.0823
▁देत	-10.0828
▁7.	-10.083
▁Di	-10.086
्स	-10.0864
▁spe	-10.0874
ph	-10.091
bow	-10.0924
▁z	-10.093
▁plan	-10.093
ox	-10.0937
ating	-10.096
▁बचा	-10.098
▁deb	-10.0984
op	-10.1001
▁रहन	-10.1003
OR	-10.1023
▁thank	-10.1025
▁mov	-10.1029
▁typ	-10.1037
▁शु	-10.1053
▁phil	-10.1077
cation	-10.108
usual	-10.1085
came	-10.1087
ध्य	-10.109
▁Too	-10.1094
win	-10.1101
OU	-10.1105
फ	-10.113
दी	-10.1139
▁Arm	-10.1151
▁हाल	-10.1152
oss	-10.1158
▁isn	-10.1167
िस	-10.1171
een	-10.1173
alit	-10.1177
९	-10.1178
scar	-10.1191
▁deci	-10.1197
क्ष	-10.1197
▁ab	-10.1199
▁79	-10.12
▁Cinema	-10.12
▁राष्ट्र	-10.1201
vail	-10.1201
▁malefic	-10.1201
तिहास	-10.1201
▁;)	-10.1201
▁accomplish	-10.1201
▁audience	-10.1201
▁explain	-10.1201
▁fraud	-10.1201
▁independen	-10.1201
▁judge	-10.1201
▁recogni	-10.1201
▁अलावा	-10.1201
▁चरित्र	-10.1201
▁पीछ	-10.1201
▁Princes	-10.1201
मंत्र	-10.1201
▁CHARACTER	-10.1201
▁Despi	-10.1201
▁similar	-10.1201
▁terrorist	-10.1201
▁simpl	-10.1201
▁arrest	-10.1201
▁annoy	-10.1201
▁Crysta	-10.1201
▁निभा	-10.1201
▁Whedon	-10.1201
▁exist	-10.1201
▁improv	-10.1201
▁network	-10.1201
▁दिए	-10.1201
▁spir	-10.1201
▁चाहती	-10.1202
▁खोज	-10.1202
▁refresh	-10.1202
▁सीख	-10.1202
▁गिर	-10.1202
▁80	-10.1202
▁अजी	-10.1202
▁odd	-10.1202
▁Dream	-10.1202
▁hahaha	-10.1202
▁flight	-10.1202
▁जानकार	-10.1204
▁भू	-10.1205
▁intelligen	-10.1205
▁रहेगा	-10.1205
▁black	-10.1205
▁dead	-10.1206
▁रखना	-10.1206
▁secret	-10.1206
▁Rob	-10.1207
▁myster	-10.1207
▁तू	-10.1208
▁हिंद	-10.1208
▁stop	-10.1209
▁Goodman	-10.1209
▁trip	-10.121
▁Of	-10.1212
tom	-10.1214
▁political	-10.1215
▁opti	-10.1216
Adam	-10.1219
▁राष्ट्रीय	-10.122
▁favo	-10.1222
▁wayne	-10.1223
▁fantasy	-10.1224
▁earl	-10.1224
▁prince	-10.1226
▁सो	-10.1226
▁style	-10.123
▁किर	-10.1235
▁चुका	-10.1243
fia	-10.1246
DA	-10.1247
ध्या	-10.1248
ario	-10.1249
▁bale	-10.1252
▁notice	-10.1254
dget	-10.1263
▁tra	-10.1285
▁Chi	-10.1292
raig	-10.1295
▁word	-10.1298
▁KI	-10.131
▁rent	-10.1318
ैल	-10.1321
▁Ha	-10.1336
▁hand	-10.1339
mon	-10.1339
कल	-10.1341
दम	-10.1357
ज़	-10.1367
▁marri	-10.137
▁gay	-10.1388
▁biographic	-10.1394
▁fast	-10.1394
rce	-10.1413
ON	-10.1415
▁लि	-10.1466
af	-10.1467
▁meaning	-10.1477
gus	-10.1491
▁चलत	-10.1503
▁देन	-10.1512
▁responses	-10.1527
▁Min	-10.155
▁बी	-10.157
ely	-10.159
▁tak	-10.1606
जर	-10.1609
▁बनात	-10.1613
▁Com	-10.1623
▁tour	-10.1656
लि	-10.1688
▁ten	-10.1699
V	-10.171
जी	-10.1713
mine	-10.1722
▁वही	-10.1732
▁red	-10.1744
▁Par	-10.1787
ract	-10.1805
▁net	-10.1823
▁Joe	-10.1855
kin	-10.1855
▁रो	-10.1858
▁sea	-10.1861
▁wro	-10.1862
▁feeling	-10.187
्या	-10.1872
ंगा	-10.1876
dri	-10.188
ंत	-10.1884
▁moves	-10.1894
िर	-10.1927
▁Du	-10.1929
▁स्वा	-10.1929
▁de	-10.1938
roll	-10.1951
बाद	-10.1963
्म	-10.1977
▁robb	-10.1993
ja	-10.2011
▁उत्तर	-10.2029
▁चुक	-10.2033
▁involv	-10.2034
hul	-10.2037
▁provide	-10.2041
cha	-10.2051
पत्	-10.206
यर	-10.2061
ndustr	-10.2062
▁scien	-10.2063
▁Im	-10.2065
▁हुव	-10.2068
CU	-10.2073
row	-10.2077
▁IMD	-10.2077
▁influence	-10.2079
▁अक्टूबर	-10.2079
▁मीटर	-10.2079
▁Lindsay	-10.2079
▁achiev	-10.2079
▁damage	-10.2079
▁depress	-10.2079
▁तरफ	-10.2079
▁होगया	-10.2079
▁color	-10.2079
▁theatre	-10.2079
▁डरावन	-10.2079
▁जनवरी	-10.2079
▁complain	-10.2079
▁skill	-10.2079
▁specific	-10.2079
▁भूमिका	-10.208
▁अप्र	-10.208
▁मौ	-10.2081
▁मगर	-10.2081
neat	-10.2081
▁violence	-10.2082
▁wake	-10.2082
▁cover	-10.2082
▁talent	-10.2083
▁मानव	-10.2083
▁ador	-10.2084
position	-10.2086
▁letter	-10.2087
▁load	-10.2088
▁Wood	-10.2092
स्थ	-10.2094
▁Justin	-10.2098
▁84	-10.21
▁महा	-10.2111
▁Hard	-10.2112
eonard	-10.2113
पति	-10.2143
▁trick	-10.2144
▁freed	-10.2146
▁handle	-10.2147
नाथ	-10.2151
िल	-10.2151
▁Trai	-10.2152
▁rules	-10.2155
pid	-10.2157
unch	-10.2161
▁निकला	-10.2161
▁वं	-10.2187
वाला	-10.2188
▁एल	-10.2188
जाय	-10.2196
▁Lil	-10.2199
▁bir	-10.22
▁Ind	-10.2208
▁su	-10.2216
▁डी	-10.2219
▁auth	-10.2229
not	-10.2251
iddle	-10.2259
यू	-10.226
▁बा	-10.2262
▁HI	-10.227
tham	-10.2292
▁रा	-10.2305
▁Ger	-10.2332
▁पड़त	-10.2335
unkirk	-10.235
▁रख	-10.2376
▁universe	-10.2384
▁dum	-10.2385
▁Ree	-10.2398
▁create	-10.2401
▁सड़	-10.2408
▁th	-10.242
▁pre	-10.2435
ump	-10.2446
duc	-10.2463
onda	-10.2467
▁MI	-10.249
ought	-10.2516
ife	-10.2526
ast	-10.253
ham	-10.2555
▁relat	-10.2573
▁bro	-10.258
वे	-10.2608
TO	-10.2643
▁ऐ	-10.2684
▁sci	-10.269
ics	-10.2696
▁HA	-10.2724
MAN	-10.274
▁pain	-10.2741
mor	-10.2747
8/	-10.276
ite	-10.2787
ual	-10.2809
U	-10.2822
hoo	-10.2846
▁bot	-10.2853
▁१९	-10.2858
▁चाह	-10.2859
▁Tim	-10.2862
ST	-10.2871
4	-10.2874
▁201	-10.2881
ong	-10.2883
ps	-10.2884
▁Bo	-10.2894
३	-10.2895
▁origin	-10.2897
गर	-10.2907
▁lo	-10.2911
ओ	-10.2913
wman	-10.2913
▁char	-10.292
score	-10.2927
़ा	-10.2935
▁एन	-10.2971
urg	-10.2971
justi	-10.2972
whi	-10.2987
▁गान	-10.3012
▁perce	-10.3014
▁invent	-10.3018
▁बुर	-10.302
ूंगा	-10.3021
▁जन	-10.3026
▁thrill	-10.3029
▁summ	-10.3035
etacritic	-10.3037
ब्द	-10.3039
ख्याल	-10.304
TTEN	-10.3041
▁DO	-10.3041
▁Gadot	-10.3041
▁HELLO	-10.3041
▁McCallister	-10.3041
▁affect	-10.3041
▁blind	-10.3041
▁cartoon	-10.3041
▁decrypt	-10.3041
▁disappoint	-10.3041
▁investigat	-10.3041
▁program	-10.3041
▁return	-10.3041
▁उपयोग	-10.3041
▁समलैंगिक	-10.3041
▁समुद्र	-10.3041
▁journ	-10.3041
▁request	-10.3041
▁ridicul	-10.3041
▁poor	-10.3041
▁retire	-10.3041
▁bank	-10.3041
▁taste	-10.3041
▁Hamm	-10.3041
eff	-10.3041
▁दिल्ली	-10.3041
▁abandon	-10.3041
▁संगीत	-10.3041
▁लौ	-10.3041
▁Drama	-10.3041
▁गलत	-10.3041
▁निकाल	-10.3041
TION	-10.3041
▁large	-10.3041
▁संगठन	-10.3041
▁shock	-10.3041
▁short	-10.3041
▁term	-10.3042
▁करोगे	-10.3042
▁पात्र	-10.3042
▁cur	-10.3042
▁stole	-10.3042
▁picture	-10.3042
▁परेशान	-10.3042
▁Vector	-10.3042
▁भाई	-10.3042
▁गुल	-10.3042
▁cold	-10.3042
▁Fil	-10.3043
▁हू	-10.3043
▁पकड़	-10.3044
ny	-10.3044
▁दुख	-10.3044
▁रात	-10.3045
▁नदी	-10.3046
▁मेह	-10.3046
▁18	-10.3048
▁nolan	-10.3048
▁dollar	-10.3048
kept	-10.3049
▁पानी	-10.305
▁जयादा	-10.3052
▁वजह	-10.3052
▁hint	-10.3054
▁near	-10.3055
हा	-10.3057
▁allow	-10.3061
▁Park	-10.3062
▁tit	-10.3064
▁हंस	-10.3066
▁burn	-10.3066
रो	-10.308
▁beat	-10.3083
▁sweet	-10.3088
▁stock	-10.3088
▁रखा	-10.309
ide	-10.3092
तम	-10.3094
▁Now	-10.3101
▁Fin	-10.3105
▁Net	-10.3112
ient	-10.3132
lay	-10.3134
EL	-10.3146
ome	-10.3166
▁वाह	-10.3168
▁लाग	-10.3178
▁प्रेम	-10.3178
onest	-10.3186
lves	-10.3189
ison	-10.3196
▁forever	-10.3198
▁trai	-10.3201
ठ	-10.3212
AN	-10.3218
treet	-10.3227
lar	-10.3233
light	-10.3238
ture	-10.3238
eh	-10.3244
▁बर्	-10.3262
▁अगल	-10.3264
मुख	-10.3266
▁जल	-10.3291
▁eas	-10.3313
▁wors	-10.3317
▁convince	-10.3318
▁ask	-10.3321
▁rank	-10.3347
▁realis	-10.3352
▁non	-10.3356
ina	-10.3356
dge	-10.3363
▁Dr	-10.3371
mo	-10.3378
▁sc	-10.3393
sel	-10.3393
▁Don	-10.3408
▁teach	-10.3413
▁रे	-10.3418
ल्स	-10.3447
▁लड़	-10.3462
िश	-10.3462
sh	-10.3486
91	-10.3489
▁उम्	-10.3493
▁दिखत	-10.3496
veral	-10.3508
▁wi	-10.3514
ug	-10.3534
▁extra	-10.3537
ील	-10.3555
▁self	-10.3556
▁pra	-10.3565
▁अग	-10.3572
▁Tho	-10.3594
हम	-10.3607
न्द	-10.3615
्मन	-10.362
▁Ne	-10.3625
▁वर्	-10.3629
▁भर	-10.3634
▁str	-10.3635
म्	-10.3646
▁See	-10.3654
im	-10.3654
▁Jona	-10.366
▁jo	-10.3705
▁पात	-10.3713
▁Hel	-10.3737
IN	-10.3739
ilit	-10.3739
ये	-10.3772
टल	-10.3782
hut	-10.3786
ix	-10.3819
ud	-10.3837
▁Br	-10.3841
ol	-10.3888
▁hour	-10.3896
▁promote	-10.3906
AL	-10.3922
▁RE	-10.3943
▁जीत	-10.397
barg	-10.3986
face	-10.3988
work	-10.3989
इस	-10.399
मिल	-10.3997
गत	-10.4032
▁lose	-10.4048
▁Wa	-10.4049
iza	-10.4055
lone	-10.4057
माण	-10.4057
ENT	-10.407
of	-10.4085
▁hid	-10.4093
▁cut	-10.4095
nsive	-10.4099
rush	-10.41
egins	-10.41
ebast	-10.4102
graphic	-10.4103
ाब	-10.4104
▁regard	-10.4105
युक्त	-10.4106
▁Character	-10.4106
▁brilliant	-10.4106
▁description	-10.4106
▁intercept	-10.4106
▁multi	-10.4106
▁nominate	-10.4106
▁qualit	-10.4106
▁risk	-10.4106
▁situation	-10.4106
▁suggest	-10.4106
▁wound	-10.4106
▁टमाटर	-10.4106
▁पिछल	-10.4106
▁पृ	-10.4106
▁मशीन	-10.4106
▁विशेष	-10.4106
▁corrupt	-10.4106
▁सूर्य	-10.4106
▁regular	-10.4106
▁photo	-10.4106
▁Gordon	-10.4106
▁Most	-10.4106
▁Crane	-10.4106
▁month	-10.4106
▁warrior	-10.4106
▁suspense	-10.4106
▁earn	-10.4106
▁Levy	-10.4106
▁REALLY	-10.4106
▁opera	-10.4106
▁hank	-10.4106
▁देखोगे	-10.4106
▁लूंगा	-10.4106
▁संघ	-10.4106
▁प्रदेश	-10.4106
▁huh	-10.4106
▁राजनीति	-10.4106
▁जिंद	-10.4106
▁Dicapr	-10.4107
▁Hawkey	-10.4107
▁आनंद	-10.4107
▁आविष्कार	-10.4107
▁माफ	-10.4107
▁captain	-10.4107
्वी	-10.4107
ARE	-10.4107
▁अंग्रेज	-10.4107
▁Look	-10.4107
▁master	-10.4107
▁Marv	-10.4107
▁जाएगा	-10.4108
▁dude	-10.4108
▁chill	-10.4108
▁hus	-10.4109
▁खास	-10.4109
▁सपन	-10.4109
▁recall	-10.4109
▁अनुस	-10.411
▁दिलात	-10.411
▁hardship	-10.411
eak	-10.4111
▁wol	-10.4111
gina	-10.4112
▁nick	-10.4112
▁Roman	-10.4113
▁Kind	-10.4113
▁interaction	-10.4113
ccess	-10.4113
▁ब्र	-10.4113
▁सामन	-10.4114
▁speak	-10.4114
थम	-10.4115
▁proce	-10.4115
▁शान	-10.4116
▁नाटक	-10.4118
▁scientist	-10.4118
▁सिंह	-10.4118
▁brit	-10.412
▁Gi	-10.4129
▁hmm	-10.4131
▁production	-10.4131
▁देखें	-10.4132
▁खान	-10.4134
▁shot	-10.4136
▁Jenn	-10.4139
▁कंप	-10.4144
▁scra	-10.4146
udy	-10.4147
▁चाल	-10.4148
▁agent	-10.4148
▁Wi	-10.415
▁Bar	-10.415
▁pai	-10.4152
▁Sa	-10.4156
night	-10.4156
▁प्रति	-10.4158
▁bigge	-10.4169
▁स्व	-10.417
▁सिफ	-10.4171
सत	-10.4172
▁Ste	-10.4178
▁steve	-10.4179
आ	-10.4181
ाइन	-10.419
क्त	-10.4193
▁पड़ा	-10.4193
min	-10.4196
▁ल	-10.4224
▁lack	-10.4228
▁कल	-10.4243
rid	-10.4243
tebook	-10.4257
▁On	-10.4263
pha	-10.428
▁किमी	-10.4284
▁टी	-10.4284
na	-10.4296
urit	-10.4301
ीत	-10.4306
P	-10.4313
▁reviewer	-10.4313
▁His	-10.4321
94	-10.4326
्शन	-10.4333
lex	-10.4336
▁जानन	-10.4345
lack	-10.4361
▁रोक	-10.4366
OMA	-10.4367
▁cho	-10.4398
▁possib	-10.4402
male	-10.4409
▁devi	-10.4409
debt	-10.4411
पूर्	-10.4416
venger	-10.4418
▁जार	-10.442
▁wing	-10.4432
▁AL	-10.4461
oh	-10.4462
गे	-10.4479
▁En	-10.4479
र्ष	-10.4481
▁कहन	-10.4482
ood	-10.4483
mp	-10.4517
▁Sid	-10.4517
orry	-10.4518
ndi	-10.4529
ald	-10.4539
▁मह	-10.4557
़ी	-10.4573
ोन	-10.4578
ाल	-10.4596
like	-10.4617
OM	-10.462
ाया	-10.463
▁pho	-10.4661
▁By	-10.4661
ंड	-10.4703
यान	-10.4704
२	-10.4719
ुन	-10.472
▁फ़	-10.4744
▁rep	-10.4758
ंग	-10.4764
52	-10.4783
▁मद	-10.4784
▁जाए	-10.4795
िक्स	-10.4795
ोर	-10.481
kins	-10.4818
▁led	-10.4836
▁सके	-10.4839
▁CHA	-10.4849
ension	-10.486
स्ट	-10.4872
ure	-10.4873
▁publish	-10.4897
itt	-10.4901
▁लाय	-10.4912
सम	-10.4921
▁bra	-10.4935
yne	-10.4953
▁convinc	-10.4961
gu	-10.4964
ial	-10.4965
▁believ	-10.4986
नत	-10.5009
▁share	-10.5023
ूं	-10.5066
ger	-10.5088
शाल	-10.51
rent	-10.5102
nch	-10.5102
वाह	-10.5103
धर	-10.511
▁scen	-10.5111
रिश	-10.5113
टो	-10.5118
▁hum	-10.5142
▁समा	-10.5146
यार	-10.5151
▁El	-10.5152
conscious	-10.5175
successful	-10.518
what	-10.5181
clear	-10.5181
▁gla	-10.5185
ction	-10.521
▁लेन	-10.5211
▁Stree	-10.5223
come	-10.5228
रिया	-10.5232
ba	-10.5237
न्	-10.525
▁मूल	-10.5251
▁करूंग	-10.5251
▁particular	-10.5264
▁build	-10.5267
६	-10.527
lf	-10.5274
▁पेश	-10.5277
MA	-10.528
obb	-10.5281
angelin	-10.5281
▁esp	-10.5285
▁boo	-10.5293
xactly	-10.5293
▁धो	-10.5297
▁susp	-10.5297
▁Angel	-10.5297
>	-10.5297
lum	-10.5297
ncil	-10.5297
धोत	-10.5297
▁Aurora	-10.5297
▁Blind	-10.5297
▁George	-10.5297
▁email	-10.5297
▁episode	-10.5297
▁example	-10.5297
▁hurt	-10.5297
▁positive	-10.5297
▁project	-10.5297
▁respond	-10.5297
▁जुलाई	-10.5297
▁पूछ	-10.5297
▁महाराष्ट्र	-10.5297
▁शुरुआत	-10.5297
▁सितम्बर	-10.5297
avoid	-10.5297
▁जल्द	-10.5297
▁बंद	-10.5297
▁obvious	-10.5297
▁चुरा	-10.5297
▁जुड़	-10.5297
▁Viking	-10.5297
▁venue	-10.5297
▁INTERESTING	-10.5297
▁demand	-10.5297
▁oppos	-10.5298
▁cliff	-10.5298
▁futur	-10.5298
▁लियो	-10.5298
▁business	-10.5298
▁समीक्षा	-10.5298
▁SUV	-10.5298
▁कलाकार	-10.5298
▁पागल	-10.5298
kript	-10.5298
▁wrap	-10.5298
▁१९५	-10.5298
▁major	-10.5298
▁तुल	-10.5298
ING	-10.5298
▁laugh	-10.5298
ेगा	-10.5299
▁flick	-10.5299
▁rewatch	-10.5299
▁mail	-10.5299
▁vector	-10.5299
▁Leigh	-10.5299
illionaire	-10.5299
▁आएगा	-10.5299
cau	-10.5299
▁respect	-10.53
▁ऊंच	-10.53
▁tame	-10.5301
▁fran	-10.5301
▁70	-10.5301
▁Amazon	-10.5301
▁charge	-10.5302
▁billionaire	-10.5303
▁एह	-10.5303
▁Anne	-10.5303
▁कठ	-10.5304
▁घंट	-10.5304
▁rare	-10.5305
▁wall	-10.5306
pire	-10.5307
▁With	-10.5307
▁mark	-10.5307
▁hopeful	-10.5309
▁लंबी	-10.5309
atana	-10.531
▁edge	-10.531
▁kidnappe	-10.531
road	-10.5312
▁जून	-10.5313
▁issue	-10.5314
फे	-10.5315
▁5.	-10.5315
▁summer	-10.532
time	-10.532
llin	-10.5321
ichol	-10.5322
फा	-10.5322
राब	-10.5324
scr	-10.5326
▁bri	-10.5326
ryl	-10.5328
▁तरीके	-10.5328
▁blo	-10.5329
▁nothing	-10.533
▁particularly	-10.5331
▁leak	-10.5332
▁courage	-10.5332
▁स्ट	-10.5335
▁Han	-10.5336
▁raise	-10.5341
ीं	-10.5344
▁apart	-10.5344
▁belong	-10.5348
▁building	-10.5355
star	-10.5364
▁founder	-10.5367
▁cheer	-10.5371
▁tear	-10.5374
hew	-10.5378
▁Street	-10.5378
▁Daw	-10.5387
▁Cul	-10.539
▁shape	-10.5397
FE	-10.5425
▁ज़	-10.5427
▁pieces	-10.5431
▁accidental	-10.5468
▁Stan	-10.5477
▁luth	-10.5478
▁buy	-10.5478
▁बि	-10.5494
▁arti	-10.5497
▁court	-10.5498
▁बने	-10.55
▁Los	-10.5501
▁देव	-10.5502
▁जोर	-10.5518
▁excite	-10.5518
▁समान	-10.5532
▁hars	-10.554
▁hours	-10.5542
▁plane	-10.5551
▁Thor	-10.5552
wil	-10.5556
ायक	-10.5577
▁Pot	-10.5584
▁aspi	-10.559
osef	-10.5595
क्स	-10.5603
▁art	-10.5603
▁Cha	-10.5603
चार	-10.5608
▁Ken	-10.5638
ashing	-10.5645
▁yo	-10.5652
▁Ke	-10.5661
igh	-10.5669
अ	-10.5672
वं	-10.5686
वी	-10.5695
▁sil	-10.5702
▁gra	-10.5711
ift	-10.5713
▁mat	-10.5721
▁gat	-10.5727
▁shar	-10.5744
ीय	-10.5753
▁force	-10.5762
▁Andy	-10.5771
hard	-10.5774
णा	-10.5776
▁नै	-10.5782
रिक	-10.5785
96	-10.5797
▁mis	-10.5841
rong	-10.5849
▁चि	-10.587
्न	-10.5877
▁भग	-10.5879
ष	-10.5879
▁prove	-10.5883
ems	-10.5911
बल	-10.5917
▁liv	-10.5956
tend	-10.5966
▁१९४	-10.5982
ारी	-10.5991
▁Tu	-10.5999
ord	-10.6018
▁कै	-10.6042
bia	-10.6059
▁store	-10.6062
नक	-10.6065
▁dept	-10.6074
ato	-10.609
रान	-10.6106
▁rat	-10.6113
▁रखत	-10.612
anne	-10.614
▁देखे	-10.6165
▁Dia	-10.6187
स्	-10.6208
▁sav	-10.6226
ति	-10.6252
शन	-10.6279
possibl	-10.6281
▁हट	-10.6294
athematician	-10.6311
डी	-10.6314
्वा	-10.6318
टी	-10.6328
▁घ	-10.6329
▁पै	-10.6354
nna	-10.6358
ical	-10.6365
्ता	-10.6376
▁hole	-10.6383
▁Hu	-10.64
क्रिया	-10.6402
▁आर	-10.6404
gree	-10.6412
ौ	-10.6418
▁mag	-10.6464
▁ह्यू	-10.6467
▁Cou	-10.6482
▁confuse	-10.6489
▁Ric	-10.6501
val	-10.6505
८	-10.6509
▁हि	-10.6528
break	-10.6534
राज्य	-10.6534
क्या	-10.6541
head	-10.6542
ski	-10.6543
▁बद	-10.6545
▁जीव	-10.6561
wis	-10.6585
ense	-10.6589
ven	-10.6596
▁roma	-10.6602
▁twi	-10.6606
▁tur	-10.6608
▁पुर	-10.6614
▁def	-10.6615
▁gues	-10.6621
fra	-10.6622
ुल	-10.663
▁na	-10.6636
▁जिल	-10.6646
▁अनु	-10.6647
॰	-10.6649
▁Russ	-10.6649
ल्फ	-10.6649
▁evacuat	-10.6651
ITE	-10.6651
ः	-10.6651
जॉय	-10.6651
ॆ	-10.6651
▁Abagnale	-10.6651
▁GOO	-10.6651
▁boat	-10.6651
▁creep	-10.6651
▁cruel	-10.6651
▁effort	-10.6651
▁exchange	-10.6651
▁execute	-10.6651
▁focus	-10.6651
▁pull	-10.6651
▁purpose	-10.6651
▁stereotype	-10.6651
▁weapon	-10.6651
▁आलोचक	-10.6651
▁जॉन	-10.6651
▁डॉ	-10.6651
▁दिवस	-10.6651
▁पुस्त	-10.6651
▁रोमांचक	-10.6651
▁लम्बी	-10.6651
▁विश्वविद्यालय	-10.6651
▁Everyone	-10.6651
▁appeal	-10.6651
▁frighten	-10.6651
▁लम्बा	-10.6651
▁lawyer	-10.6651
▁intrest	-10.6651
जूद	-10.6651
▁solid	-10.6651
▁introduce	-10.6651
▁profession	-10.6651
▁subject	-10.6651
▁mugger	-10.6651
त्व	-10.6651
▁loose	-10.6651
answer	-10.6651
▁Rocky	-10.6651
▁preview	-10.6651
▁locate	-10.6651
▁breath	-10.6651
▁Favreau	-10.6651
▁प्रभाव	-10.6651
▁California	-10.6651
▁Walke	-10.6651
▁dislike	-10.6651
reserv	-10.6651
,000	-10.6651
▁चोर	-10.6652
FL	-10.6652
▁Direct	-10.6652
▁delay	-10.6652
▁assassin	-10.6652
▁content	-10.6653
▁extreme	-10.6653
▁Goodwin	-10.6653
▁अक्स	-10.6653
▁crush	-10.6653
▁हिन्दू	-10.6653
▁Basic	-10.6653
▁relative	-10.6654
ुत	-10.6654
▁relev	-10.6654
▁gang	-10.6654
्रवा	-10.6654
▁fift	-10.6655
धिकार	-10.6655
▁evol	-10.6655
महाद्वीप	-10.6655
▁advance	-10.6655
▁studio	-10.6655
eet	-10.6656
▁click	-10.6658
▁घोष	-10.6658
▁terr	-10.6659
▁crack	-10.666
▁cal	-10.666
▁expand	-10.6661
▁memories	-10.6661
▁burg	-10.6662
▁Pal	-10.6662
▁करूँ	-10.6663
▁bare	-10.6664
▁कोशिका	-10.6664
▁Sport	-10.6664
▁attracti	-10.6664
AY	-10.6665
▁overwhelming	-10.6667
▁contro	-10.6667
▁देखती	-10.6667
ology	-10.6667
▁CG	-10.6667
▁sang	-10.6669
▁mistaken	-10.667
▁pretend	-10.667
▁अप	-10.6672
▁Hop	-10.6673
२८	-10.6673
▁देर	-10.6673
tain	-10.6673
▁कंब	-10.6675
▁div	-10.6677
▁सर्व	-10.6677
arth	-10.668
▁गुप्त	-10.6684
▁walk	-10.6684
lev	-10.6688
▁fell	-10.6689
▁Mis	-10.6693
media	-10.6694
▁teen	-10.6694
▁Bat	-10.6695
▁Never	-10.6697
fer	-10.6697
▁spo	-10.6699
▁बोलते	-10.67
▁accurate	-10.6703
▁apparent	-10.6703
▁test	-10.6704
खर	-10.6705
▁inde	-10.6706
mash	-10.6708
▁Mal	-10.6708
▁expel	-10.6713
▁आसान	-10.6715
fter	-10.6717
adia	-10.6721
्मद	-10.6722
▁एशिया	-10.6723
▁नाग	-10.6724
▁clima	-10.6726
arv	-10.6727
▁lad	-10.6734
ीर	-10.6734
▁stake	-10.6742
▁begins	-10.6748
irl	-10.6752
▁men	-10.6764
▁exception	-10.6765
ivat	-10.6774
▁hold	-10.6779
nam	-10.6781
▁clear	-10.6789
▁माय	-10.679
▁crim	-10.6795
प्र	-10.6795
▁indian	-10.6804
जनक	-10.682
ela	-10.6827
▁Gen	-10.6828
ँच	-10.6829
▁97	-10.6832
▁supp	-10.6837
चय	-10.684
▁ci	-10.6846
▁शर	-10.6852
enge	-10.6857
▁plant	-10.6862
reek	-10.6862
mission	-10.6867
▁toward	-10.6867
▁disqualif	-10.687
ition	-10.6873
igg	-10.6878
▁हिस	-10.691
▁समझा	-10.6912
OL	-10.6916
hill	-10.6918
verin	-10.6922
uh	-10.6939
णी	-10.6954
ैन	-10.6959
ंगे	-10.6959
त्य	-10.697
▁Knight	-10.6974
▁Pla	-10.6977
▁डे	-10.6997
▁arm	-10.703
▁theme	-10.7032
▁NE	-10.7037
▁आगय	-10.7045
▁क्य	-10.7049
▁bell	-10.7053
knowledge	-10.7058
▁greed	-10.7061
30	-10.7066
एंगे	-10.7067
▁स्वाम	-10.709
टन	-10.7103
एँ	-10.7108
▁documentar	-10.7109
▁WW	-10.7158
▁रच	-10.7182
▁pit	-10.7185
▁सि	-10.7189
▁ph	-10.7193
▁ball	-10.7209
US	-10.7209
ative	-10.7225
il	-10.7247
▁मिलेग	-10.7259
▁include	-10.7259
ane	-10.7263
ैच	-10.7271
▁बढ़	-10.7283
sis	-10.729
isa	-10.7303
hange	-10.7305
ization	-10.731
ara	-10.7311
▁sh	-10.7316
▁bus	-10.7322
rera	-10.7323
▁192	-10.7332
ations	-10.7394
▁माल	-10.7408
▁unp	-10.7415
tern	-10.745
lien	-10.7468
▁SU	-10.7473
▁soci	-10.7474
aptain	-10.7491
▁event	-10.75
▁prov	-10.7544
▁बल	-10.7566
▁par	-10.757
▁लेक	-10.7575
▁रु	-10.759
ूट	-10.759
वन	-10.7629
▁fl	-10.7632
▁teache	-10.7636
▁डाल	-10.7639
oon	-10.764
pell	-10.7645
▁ME	-10.7697
▁fav	-10.7702
ko	-10.771
ोल	-10.772
निक	-10.7751
▁बतान	-10.7753
▁सुनत	-10.7758
जेल	-10.7772
▁पर्या	-10.7788
तिक	-10.7796
ौर	-10.7797
ott	-10.7801
born	-10.7804
▁hire	-10.7813
ism	-10.7828
▁bi	-10.7832
कता	-10.7833
पा	-10.7852
▁plat	-10.7855
▁ment	-10.7867
▁si	-10.7887
दास	-10.7897
ist	-10.7916
▁Bri	-10.7935
▁दिखात	-10.7948
▁becom	-10.7956
berg	-10.7972
▁gen	-10.7977
com	-10.798
aka	-10.7997
play	-10.8003
▁che	-10.8037
▁एड	-10.804
ngelina	-10.8049
sci	-10.8054
ien	-10.8059
ack	-10.8078
divid	-10.8084
ink	-10.8086
▁except	-10.8087
)	-10.8096
killer	-10.8096
घ	-10.8097
connect	-10.8098
dum	-10.8099
track	-10.8101
worker	-10.8114
spect	-10.8122
मेर	-10.8128
cle	-10.8132
pun	-10.814
▁मुझ	-10.8154
रस	-10.8157
▁अमेरिक	-10.817
▁अच	-10.8172
▁Russia	-10.8172
▁ow	-10.8174
यल	-10.8177
▁gu	-10.8182
▁ran	-10.8189
हर	-10.8196
चे	-10.8199
▁अं	-10.8201
avil	-10.8202
▁fantas	-10.8207
iel	-10.8208
▁violen	-10.8211
तक	-10.8212
umber	-10.8213
▁हिन्द	-10.8214
▁arg	-10.8215
▁योग	-10.8215
OT	-10.8215
▁२०१	-10.8215
▁publi	-10.8216
qua	-10.8216
▁clic	-10.8216
▁१४	-10.8216
▁satisf	-10.8216
$	-10.8216
]	-10.8216
comfort	-10.8216
script	-10.8216
▁MESSAGE	-10.8216
▁STORY	-10.8216
▁america	-10.8216
▁attempt	-10.8216
▁employee	-10.8216
▁enlist	-10.8216
▁nirdesha	-10.8216
▁oak	-10.8216
▁ocean	-10.8216
▁previous	-10.8216
▁research	-10.8216
▁shrink	-10.8216
▁supervillain	-10.8216
▁zuckerb	-10.8216
▁अलविदा	-10.8216
▁आसपास	-10.8216
▁कंप्यूटर	-10.8216
▁ख़याल	-10.8216
▁दस्तावेज	-10.8216
▁दिसम्बर	-10.8216
▁पक्क	-10.8216
▁पहचान	-10.8216
▁प्रशंस	-10.8216
▁यात्रा	-10.8216
▁concern	-10.8216
▁micro	-10.8216
▁valu	-10.8216
▁inherit	-10.8216
▁official	-10.8216
▁psych	-10.8216
▁wealth	-10.8216
▁gli	-10.8216
▁DIS	-10.8216
gnific	-10.8216
▁german	-10.8216
▁प्रदर्श	-10.8216
▁STEEL	-10.8216
▁visual	-10.8216
▁Jenkin	-10.8216
▁update	-10.8216
▁harmon	-10.8216
▁उच्च	-10.8216
▁deliver	-10.8216
▁Wilde	-10.8216
egoti	-10.8217
▁disagree	-10.8217
▁creature	-10.8217
▁संस्कृत	-10.8217
▁GUY	-10.8217
▁oscar	-10.8217
NGE	-10.8217
▁Kryptoni	-10.8217
▁viking	-10.8217
▁खरीद	-10.8217
▁पड़ेगी	-10.8217
▁सवाल	-10.8217
▁मजाकिया	-10.8217
▁affair	-10.8217
▁rabbit	-10.8217
▁throw	-10.8217
▁SO	-10.8217
▁अकेल	-10.8217
०००	-10.8217
▁fellow	-10.8217
▁ob	-10.8217
SIC	-10.8217
▁fitzger	-10.8217
ाएं	-10.8217
▁NEW	-10.8217
▁Rhode	-10.8217
▁लु	-10.8217
▁aurora	-10.8218
▁70/100	-10.8218
▁2004	-10.8218
▁मोदी	-10.8218
▁44	-10.8218
▁deter	-10.8218
▁वर्ण	-10.8218
▁YEA	-10.8219
▁tech	-10.8219
▁अर्थ	-10.8219
▁cheek	-10.8219
▁क्ल	-10.8219
▁Hancock	-10.8219
▁देखेंगे	-10.8219
packed	-10.8219
▁जिन	-10.8219
▁सागर	-10.8219
▁gru	-10.822
िवार	-10.822
cano	-10.822
▁13	-10.822
दद	-10.8221
▁2008	-10.8221
▁broke	-10.8221
ream	-10.8221
▁THAT	-10.8221
▁scientific	-10.8221
▁instinct	-10.8222
▁coff	-10.8222
▁Water	-10.8224
▁सिर	-10.8224
▁होजात	-10.8224
rori	-10.8224
▁महत्व	-10.8224
▁totem	-10.8225
apst	-10.8225
▁बुद्ध	-10.8225
▁Charles	-10.8226
▁लेखक	-10.8229
▁तुम्हे	-10.823
chool	-10.8232
▁cohe	-10.8232
▁sur	-10.8233
▁sink	-10.8233
▁buck	-10.8235
▁claim	-10.8235
▁‘	-10.8235
▁WORK	-10.8235
▁cry	-10.8236
▁conf	-10.8236
▁Dam	-10.8238
UL	-10.8239
inni	-10.8241
▁crowd	-10.8241
▁fal	-10.8245
▁rid	-10.8245
▁match	-10.8245
▁Other	-10.8246
ष्ट	-10.8246
▁SH	-10.8247
iness	-10.8247
▁Bell	-10.8247
▁हाय	-10.8248
ंच	-10.8248
▁enime	-10.825
▁villa	-10.8252
▁रूस	-10.8253
▁suck	-10.8253
▁vibe	-10.8255
▁कथा	-10.8256
▁girlfriend	-10.8256
▁भाव	-10.8257
▁देखकर	-10.8258
▁prim	-10.8259
eph	-10.8259
विष	-10.8262
▁visit	-10.8267
▁चार	-10.8267
▁emo	-10.8268
▁कार्य	-10.827
ग्राम	-10.8272
ument	-10.8272
link	-10.8272
▁घा	-10.8273
▁desp	-10.8274
▁weren	-10.8274
▁gun	-10.8275
tak	-10.8275
▁चित्र	-10.8275
▁cross	-10.8275
▁twin	-10.8276
▁विज्ञान	-10.8276
▁praise	-10.8276
▁झ	-10.8277
पन	-10.8277
जा	-10.8279
▁Dan	-10.828
▁अमेरिका	-10.8282
stical	-10.8286
mega	-10.8288
चार्	-10.8288
▁provid	-10.8289
▁spie	-10.8291
▁Biographic	-10.8298
▁स्टे	-10.83
than	-10.8306
▁सु	-10.8306
▁जीता	-10.831
ully	-10.831
▁Leo	-10.8318
▁व्य	-10.8319
▁Old	-10.832
mid	-10.8321
▁नेह	-10.8329
▁puri	-10.8335
car	-10.8339
▁track	-10.8339
trick	-10.834
▁Carre	-10.8347
▁लेना	-10.8354
▁आच	-10.8354
▁demo	-10.8355
shame	-10.8357
▁seat	-10.8359
▁OL	-10.836
ुख	-10.8361
▁तेर	-10.8362
aker	-10.8365
▁Oo	-10.8366
ka	-10.8367
▁अर्	-10.8377
▁imit	-10.8383
aur	-10.8386
urp	-10.8387
▁लाल	-10.8387
▁पड़े	-10.8393
चक	-10.8399
eeme	-10.841
▁मां	-10.8415
▁light	-10.8418
lo	-10.8424
cate	-10.8435
▁ह्यूम	-10.8437
slight	-10.844
शक	-10.8446
▁Kat	-10.8459
▁४	-10.8467
obber	-10.8468
टिक	-10.8469
▁winn	-10.8469
▁eh	-10.8479
▁लड़किय	-10.8492
▁rac	-10.8493
▁ट्र	-10.8499
▁abort	-10.8501
▁hide	-10.8505
low	-10.8505
▁ईस	-10.8511
▁legal	-10.8514
▁inside	-10.8521
ाल्क	-10.8528
vill	-10.8528
▁repla	-10.8542
tune	-10.8543
sty	-10.8547
OW	-10.8556
▁Time	-10.8558
▁मं	-10.8574
▁intern	-10.8575
9	-10.8579
▁bod	-10.858
ेट	-10.858
amon	-10.8587
ंज	-10.8592
▁Ye	-10.8593
▁जम	-10.8594
▁TO	-10.8597
्यू	-10.8598
बे	-10.8599
▁गौ	-10.8623
▁South	-10.8628
air	-10.8643
▁jos	-10.8644
BLE	-10.8647
▁port	-10.8655
हार	-10.8658
▁form	-10.8664
▁contract	-10.8688
▁matt	-10.869
lame	-10.8699
TY	-10.8705
order	-10.8713
ature	-10.8714
live	-10.8722
▁goo	-10.8745
▁forgett	-10.8757
डर	-10.8762
▁publishe	-10.878
▁pe	-10.8791
LLY	-10.8792
▁offe	-10.8802
ev	-10.8806
▁Stu	-10.8811
▁Li	-10.8824
▁ची	-10.8824
हरा	-10.8826
▁तै	-10.884
▁compari	-10.8847
▁डिज	-10.8862
itness	-10.8866
▁अद्	-10.8869
येंगे	-10.8903
मय	-10.8915
▁स्	-10.892
्ण	-10.8933
hel	-10.8944
EE	-10.8946
▁receiv	-10.8954
▁केंद्र	-10.8956
▁फ्रो	-10.897
▁नी	-10.8971
ूँ	-10.8973
▁gi	-10.8976
म्ब	-10.8978
late	-10.8982
िच	-10.8992
hi	-10.8997
▁hain	-10.9002
▁area	-10.9003
▁हमन	-10.9019
▁Us	-10.9026
▁डि	-10.9049
▁पस	-10.9065
िका	-10.9106
og	-10.9109
▁9	-10.912
नो	-10.9135
tude	-10.9148
▁dy	-10.9149
▁अंद	-10.9162
▁सुनी	-10.917
बी	-10.9183
▁id	-10.9187
format	-10.9206
▁leg	-10.9228
▁लोगो	-10.9274
Gra	-10.9285
नाया	-10.9305
▁सक	-10.9327
▁bla	-10.9329
▁गाय	-10.9335
anist	-10.9345
ूँगा	-10.935
go	-10.9352
ज़ी	-10.9355
▁surely	-10.9365
▁टै	-10.937
साज	-10.9373
स्क	-10.9378
▁creat	-10.9393
रब	-10.9402
pt	-10.9402
▁Care	-10.9409
▁moral	-10.941
▁चा	-10.9428
NE	-10.9432
वार	-10.9448
▁Sc	-10.9454
ंडो	-10.9464
नए	-10.9464
सर	-10.9471
▁जोड़	-10.9474
ease	-10.9479
▁मी	-10.9484
▁pat	-10.9504
SO	-10.9514
ोप	-10.9529
▁पाल	-10.9535
Tu	-10.955
▁reconcile	-10.9573
्यु	-10.9619
▁race	-10.9643
▁jon	-10.9659
hit	-10.9662
▁ST	-10.9682
वि	-10.9682
डा	-10.9683
आप	-10.9709
न्य	-10.9711
amin	-10.9718
wle	-10.9718
▁pea	-10.9731
sapp	-10.9741
▁pos	-10.9776
▁इम	-10.9786
भर	-10.9787
▁अम	-10.9801
▁Hol	-10.9836
▁आय	-10.9851
▁element	-10.9863
▁bal	-10.9878
AS	-10.988
▁piece	-10.9883
▁preferen	-10.9891
िनी	-10.9909
ade	-10.9912
▁नामक	-10.9915
च्छ	-10.9938
how	-10.9947
friend	-10.9955
देव	-10.9955
expect	-10.9956
भारत	-10.9956
मैं	-10.9957
मुझे	-10.9957
know	-10.9957
10	-10.996
word	-10.9962
बेल	-10.9964
warm	-10.9965
ुस	-10.9967
हल	-10.9976
fight	-10.9976
▁contemp	-10.9985
ILL	-10.9992
▁chris	-10.9999
▁लै	-11.0004
00	-11.001
▁cine	-11.0023
▁फै	-11.0024
pri	-11.0025
▁els	-11.0025
▁थोड	-11.0027
▁अन्न	-11.0032
▁Must	-11.0038
▁fool	-11.0039
▁crypt	-11.0046
▁चू	-11.0048
ंबर	-11.0049
▁kidnap	-11.0053
▁natur	-11.0055
DER	-11.0059
▁लेख	-11.0066
erfect	-11.0068
anu	-11.007
▁assass	-11.0071
UTE	-11.0071
X	-11.0071
isenberg	-11.0072
itzger	-11.0072
▁लह	-11.0072
ैंड	-11.0072
▁ऑफ	-11.0073
गठन	-11.0073
▁व्यक्ति	-11.0073
ार्क	-11.0073
EVEN	-11.0073
यॉर्क	-11.0073
▁MONSTER	-11.0073
▁RATING	-11.0073
▁SuperHero	-11.0073
▁TRUE	-11.0073
▁acclaim	-11.0073
▁awake	-11.0073
▁captiv	-11.0073
▁christophe	-11.0073
▁contribut	-11.0073
▁janitor	-11.0073
▁mobster	-11.0073
▁mustang	-11.0073
▁newspaper	-11.0073
▁nirdeshi	-11.0073
▁smooth	-11.0073
▁अंध	-11.0073
▁आकर्ष	-11.0073
▁इब्न	-11.0073
▁कि॰मी॰	-11.0073
▁गैस	-11.0073
▁चाइये	-11.0073
▁छठ	-11.0073
▁जापान	-11.0073
▁धन	-11.0073
▁नमस्कार	-11.0073
▁पार्टी	-11.0073
▁बैंक	-11.0073
▁ब्रिटिश	-11.0073
▁महासागर	-11.0073
▁योद्धा	-11.0073
तंत्र	-11.0073
▁DIRECT	-11.0073
▁छत	-11.0073
▁प्रयोग	-11.0073
▁वॉ	-11.0073
शास्त्र	-11.0073
▁niece	-11.0073
▁push	-11.0073
▁ढू	-11.0073
▁combin	-11.0073
▁supar	-11.0073
▁surviv	-11.0073
▁loyal	-11.0073
▁pursu	-11.0073
▁पहुंच	-11.0073
▁SPI	-11.0073
▁horrib	-11.0073
▁Ship	-11.0073
▁dvd	-11.0073
▁suffer	-11.0073
▁केशव	-11.0073
▁श्री	-11.0073
▁increas	-11.0074
▁regret	-11.0074
▁slaps	-11.0074
मात्र	-11.0074
▁Scene	-11.0074
▁shoot	-11.0074
▁display	-11.0074
सूस	-11.0074
▁forgiv	-11.0074
▁hyp	-11.0074
▁जिन्ह	-11.0074
AGE	-11.0074
parat	-11.0074
▁trash	-11.0074
▁market	-11.0074
▁बुलाया	-11.0074
TUAL	-11.0075
▁whedon	-11.0075
▁शांत	-11.0075
▁MICH	-11.0075
▁90	-11.0075
tail	-11.0075
▁कहूँगा	-11.0075
▁REAL	-11.0075
▁More	-11.0075
▁Raven	-11.0075
▁जासूस	-11.0075
ANK	-11.0075
▁सफलता	-11.0075
▁coast	-11.0076
▁command	-11.0076
▁result	-11.0076
iks	-11.0076
▁Matt	-11.0076
▁चलेगा	-11.0076
▁11	-11.0076
rcum	-11.0076
▁nomination	-11.0077
▁कमाया	-11.0077
▁आयेगा	-11.0077
▁FAM	-11.0077
▁daisy	-11.0077
▁Shark	-11.0077
▁cook	-11.0077
▁16	-11.0077
icture	-11.0077
▁refer	-11.0077
▁12	-11.0077
▁Walt	-11.0077
▁CINE	-11.0078
hems	-11.0078
▁gem	-11.0078
▁draw	-11.0078
▁न्यू	-11.0078
▁तारी	-11.0079
▁rigg	-11.0079
▁सामान	-11.0079
▁threaten	-11.0079
▁remo	-11.0079
▁50	-11.0079
▁Quint	-11.0079
iccup	-11.008
▁adam	-11.008
BT	-11.0081
▁DU	-11.0083
▁worrie	-11.0083
▁limit	-11.0084
▁CL	-11.0084
▁study	-11.0085
▁decade	-11.0086
ट्स	-11.0086
▁मीना	-11.0086
▁मले	-11.0086
▁image	-11.0088
नन्द	-11.0088
▁earlie	-11.0089
▁दल	-11.0089
▁Blo	-11.009
▁sche	-11.009
▁खिला	-11.0092
uire	-11.0093
▁compet	-11.0095
▁Love	-11.0095
▁द्वितीय	-11.0095
▁नवम्बर	-11.0095
▁द्वीप	-11.0095
▁Elle	-11.0096
▁MAR	-11.0096
▁नरे	-11.0096
▁25	-11.0096
▁अंतर्	-11.0097
▁etc	-11.0097
▁nope	-11.0098
cal	-11.0098
▁tee	-11.0099
▁Comedy	-11.0101
▁INFO	-11.0104
▁Hahah	-11.0104
OUS	-11.0105
▁litera	-11.0107
unny	-11.0107
▁gather	-11.0107
▁Mustan	-11.0109
▁manage	-11.011
irst	-11.011
▁industr	-11.011
▁hahah	-11.0113
▁mass	-11.0116
cious	-11.0116
essful	-11.0117
▁naa	-11.0117
▁अक	-11.0118
▁beaches	-11.0118
▁SCORE	-11.012
▁हं	-11.0121
▁NI	-11.0121
▁dig	-11.0123
▁mayor	-11.0124
▁craft	-11.0125
▁राम	-11.0126
▁stark	-11.0126
▁villan	-11.0127
▁fooled	-11.0128
▁fish	-11.0128
▁rand	-11.0129
▁selec	-11.0129
रमन	-11.0131
tric	-11.0133
▁डाला	-11.0133
▁दिनों	-11.0134
▁subdue	-11.0135
▁आश	-11.0136
NK	-11.0137
मोह	-11.0141
ुंदर	-11.0142
▁CRITIC	-11.0144
rror	-11.0148
▁hall	-11.0151
▁Tyl	-11.0152
▁exten	-11.0155
WD	-11.0158
Critic	-11.0158
▁sequence	-11.0169
▁gri	-11.0178
▁Aniston	-11.0186
rek	-11.0193
OME	-11.0193
▁चर	-11.0193
ंक	-11.0193
akes	-11.0194
▁Sci	-11.0195
▁send	-11.0197
▁अव	-11.0202
▁आं	-11.0205
▁sell	-11.0212
▁खात	-11.0212
hallow	-11.0215
होगे	-11.0216
▁sit	-11.0225
▁बारेमें	-11.0233
▁intend	-11.0237
▁divide	-11.0239
▁८	-11.0243
▁slight	-11.0246
▁pur	-11.0249
▁templ	-11.0263
▁nin	-11.0263
▁amazon	-11.0263
hang	-11.0264
ntagon	-11.0267
▁conscious	-11.0268
Lev	-11.027
▁pl	-11.0284
▁बह	-11.0285
▁मज़	-11.0288
hic	-11.0291
बर	-11.0299
▁doc	-11.0299
▁मई	-11.0301
▁करेग	-11.0325
bh	-11.033
▁fb	-11.033
पी	-11.0336
वरी	-11.0337
िंद	-11.0344
▁सीम	-11.0351
्टर	-11.0352
चित	-11.0354
▁Mart	-11.0355
▁krist	-11.0363
न्त	-11.0374
▁शाह	-11.0374
bid	-11.0376
ुब	-11.0382
INE	-11.0389
▁stab	-11.0394
तन	-11.0407
▁Per	-11.0416
▁mac	-11.0417
clu	-11.042
▁बाब	-11.0426
ुझ	-11.0439
▁bust	-11.0441
रोप	-11.0444
hillip	-11.0457
▁Luc	-11.0459
ीव	-11.0462
leep	-11.0466
▁rag	-11.0468
▁inc	-11.0468
▁loser	-11.0472
▁बढ़न	-11.0476
uk	-11.0486
▁conn	-11.0493
WE	-11.0517
लों	-11.0518
actor	-11.0518
▁worker	-11.0524
रेन	-11.0524
▁Da	-11.0524
पुर	-11.0527
▁चे	-11.0536
िप्प	-11.0541
az	-11.0547
erci	-11.0587
▁IN	-11.0589
▁Si	-11.0593
ator	-11.0596
viet	-11.0598
वाय	-11.0599
▁reconcil	-11.06
▁gran	-11.0638
emi	-11.0642
REE	-11.0644
▁rely	-11.0657
सास	-11.0676
▁काट	-11.0692
ctic	-11.0696
yon	-11.0698
▁Sar	-11.0698
OH	-11.071
peak	-11.0719
▁री	-11.0731
द्र	-11.0754
ASE	-11.0755
स्य	-11.0763
▁Gar	-11.0778
्मी	-11.0796
6.9	-11.083
HAT	-11.0836
RK	-11.0838
करण	-11.0842
mise	-11.0859
▁Coul	-11.0868
int	-11.0889
ult	-11.0902
िल्म	-11.0904
gur	-11.0906
▁Ki	-11.0908
▁pal	-11.0924
ude	-11.0924
▁caus	-11.0928
▁190	-11.0951
mann	-11.096
quer	-11.0962
▁जाग	-11.1064
immi	-11.1065
▁वै	-11.1067
िसा	-11.1071
▁ग्र	-11.1092
मन	-11.1109
87	-11.1116
सेन	-11.1117
४५	-11.112
म्प	-11.1122
AME	-11.1122
सल	-11.1129
▁रोट	-11.1132
▁bab	-11.1142
▁सेना	-11.1169
राव	-11.1182
▁दीप	-11.1184
▁अचा	-11.1192
▁extr	-11.1202
20	-11.1209
▁wasnt	-11.1217
ोज़	-11.1218
ond	-11.1224
ुगल	-11.1232
▁mi	-11.1258
▁lu	-11.1262
▁dep	-11.1266
चर	-11.1283
पित	-11.1288
ID	-11.1291
hap	-11.1304
्रोजन	-11.1315
▁cent	-11.1349
▁pun	-11.1349
▁phe	-11.1382
▁confus	-11.1389
53	-11.1393
ache	-11.1401
sult	-11.1402
श्	-11.1411
▁engage	-11.1424
▁पाय	-11.1425
▁pol	-11.1439
िश्	-11.1454
▁ते	-11.1454
एगा	-11.1466
सिद्ध	-11.1467
▁narrat	-11.1489
हन	-11.1513
ूस	-11.1531
▁Va	-11.1538
▁state	-11.1539
ask	-11.154
हर्ष	-11.1546
ital	-11.1547
ledge	-11.1572
▁राजन	-11.1582
▁मेन	-11.1595
फर	-11.1644
▁fond	-11.1645
िए	-11.1648
▁ana	-11.1662
MO	-11.1663
िमा	-11.1672
▁appro	-11.1677
▁बोलत	-11.1686
▁ढूंढ	-11.1706
over	-11.1722
mal	-11.1732
ota	-11.1734
▁28	-11.1737
▁Jan	-11.1743
▁biograph	-11.1789
part	-11.1803
harp	-11.1805
nda	-11.181
▁सै	-11.1857
ower	-11.1857
एज	-11.1885
spit	-11.1886
hop	-11.1905
िंग	-11.191
hl	-11.1917
▁फर	-11.1922
▁marr	-11.1934
▁stat	-11.1939
▁generat	-11.1951
▁रि	-11.1963
▁हरि	-11.1969
▁athlet	-11.1977
illian	-11.1993
oop	-11.2007
ाली	-11.2044
मो	-11.207
सो	-11.2079
anger	-11.2085
▁Fa	-11.2087
गार	-11.2092
गल	-11.2096
माता	-11.2105
जें	-11.211
▁YA	-11.2116
▁लड़कियो	-11.2139
▁clas	-11.2143
▁rule	-11.2145
cast	-11.215
ritic	-11.2169
wii	-11.218
▁बताए	-11.2181
uls	-11.2183
रिय	-11.2199
timo	-11.2206
▁Scien	-11.221
▁एव	-11.2217
▁अवध	-11.2224
GA	-11.2228
templat	-11.2232
jerker	-11.2236
▁vita	-11.2236
१२	-11.2237
OK	-11.2238
sweet	-11.2238
stock	-11.2238
ऊ	-11.2238
natural	-11.2238
board	-11.2238
bust	-11.2238
class	-11.2238
problem	-11.2238
superhero	-11.2239
लेकिन	-11.2239
look	-11.224
उ	-11.224
sequence	-11.2242
first	-11.2243
handle	-11.2244
bring	-11.2248
ज़र	-11.2249
watch	-11.2256
fil	-11.2257
strict	-11.2257
pparent	-11.2263
wesome	-11.2268
वो	-11.2269
एन	-11.2275
ल्ल	-11.2277
देश	-11.2286
▁तरीक	-11.2293
्च	-11.2294
AST	-11.2295
UM	-11.23
▁entertain	-11.2301
होन	-11.2301
▁जर्मन	-11.2305
stand	-11.2305
trate	-11.231
dose	-11.2316
▁आस	-11.2317
▁polar	-11.2319
▁ग्रा	-11.2323
▁HE	-11.2327
mber	-11.2328
ucin	-11.2328
▁atti	-11.2331
▁TH	-11.2331
ummer	-11.234
▁interact	-11.234
▁deca	-11.2343
▁Sh	-11.2344
▁emp	-11.2345
nimation	-11.2346
▁Pat	-11.2348
▁घो	-11.2348
▁advan	-11.2349
sequen	-11.235
ज्ञ	-11.235
द्ध	-11.235
▁प्रत	-11.2351
ोट	-11.2351
▁सोन	-11.2352
▁Super	-11.2352
iat	-11.2353
fresh	-11.2353
▁चंद	-11.2353
▁conte	-11.2353
▁बेच	-11.2355
scape	-11.2355
▁soulful	-11.2355
▁कॉम	-11.2355
▁जुट	-11.2355
HHH	-11.2355
▁Aurello	-11.2355
▁CHECK	-11.2355
▁INTRINSIC	-11.2355
▁Superhero	-11.2355
▁discover	-11.2355
▁khaas	-11.2355
▁misrepresent	-11.2355
▁monolo	-11.2355
▁poison	-11.2355
▁satir	-11.2355
&	-11.2355
TURE	-11.2355
विधा	-11.2355
ाउंट	-11.2355
▁AVENGERS	-11.2355
▁CAINE	-11.2355
▁Cassavetes	-11.2355
▁REVIEW	-11.2355
▁Relationship	-11.2355
▁Speilb	-11.2355
▁breakthrough	-11.2355
▁confirm	-11.2355
▁defeat	-11.2355
▁dialogue	-11.2355
▁distort	-11.2355
▁distribut	-11.2355
▁dynamic	-11.2355
▁eliminate	-11.2355
▁empowering	-11.2355
▁executive	-11.2355
▁formula	-11.2355
▁hibernate	-11.2355
▁holiday	-11.2355
▁injure	-11.2355
▁intrinsic	-11.2355
▁neighbor	-11.2355
▁nephew	-11.2355
▁priceless	-11.2355
▁quote	-11.2355
▁theatrical	-11.2355
▁trope	-11.2355
▁unhapp	-11.2355
▁अम्ल	-11.2355
▁अहमद	-11.2355
▁इंसान	-11.2355
▁उपन्यास	-11.2355
▁ऎस	-11.2355
▁ख़ान	-11.2355
▁गांधी	-11.2355
▁जॉब्स	-11.2355
▁पर्वत	-11.2355
▁प्रधान	-11.2355
▁बिंदु	-11.2355
▁मजबू	-11.2355
▁लॉ	-11.2355
▁वेंकट	-11.2355
▁सीध	-11.2355
न्ध	-11.2355
▁Nazi	-11.2355
▁Spark	-11.2355
▁Video	-11.2355
▁convo	-11.2355
▁enslave	-11.2355
▁overcompensat	-11.2355
▁reunite	-11.2355
▁sympath	-11.2355
▁छा	-11.2355
▁जेनेवा	-11.2355
▁निराश	-11.2355
▁रेखा	-11.2355
▁१३	-11.2355
ghar	-11.2355
▁frustrat	-11.2355
▁smith	-11.2355
▁tempt	-11.2355
▁घटना	-11.2355
ACK	-11.2355
▁billion	-11.2355
▁costume	-11.2355
▁space	-11.2355
▁अभिन	-11.2355
▁edgerton	-11.2355
▁freak	-11.2355
▁Vegas	-11.2355
▁gross	-11.2355
lzheimer	-11.2356
▁blend	-11.2356
▁levitat	-11.2356
समूह	-11.2356
▁electro	-11.2356
▁mechanic	-11.2356
फ्ल	-11.2356
▁depict	-11.2356
▁addict	-11.2356
▁roar	-11.2356
▁gradua	-11.2356
▁देखूंग	-11.2356
culo	-11.2356
▁निगम	-11.2356
ify	-11.2356
अभि	-11.2356
▁जाओगे	-11.2356
सूर	-11.2356
▁क्रिक	-11.2356
capa	-11.2356
▁transfer	-11.2356
▁cousin	-11.2356
▁testify	-11.2356
▁unfortunate	-11.2356
▁महाराज	-11.2356
▁flirt	-11.2356
▁प्रकाश	-11.2356
▁उल्ले	-11.2356
▁civilian	-11.2356
culat	-11.2356
िटे	-11.2356
▁क़ु	-11.2356
▁frame	-11.2356
▁Mathe	-11.2356
ण्ड	-11.2356
ibrate	-11.2356
▁Clark	-11.2356
▁looooo	-11.2356
▁sign	-11.2356
lgori	-11.2356
▁behav	-11.2356
▁tourist	-11.2356
▁२००	-11.2356
▁prospect	-11.2356
▁church	-11.2356
▁gender	-11.2356
▁२०११	-11.2356
▁कोशिकाओं	-11.2356
ahaaha	-11.2356
▁NYT	-11.2356
FIR	-11.2357
००	-11.2357
▁Lasse	-11.2357
▁deposition	-11.2357
▁यंह	-11.2357
ुष	-11.2357
▁betray	-11.2357
▁चौ	-11.2357
▁Turn	-11.2357
▁cloth	-11.2357
▁मेम	-11.2357
▁चिंत	-11.2357
PH	-11.2357
▁स्टीव	-11.2357
लैंड	-11.2358
EC	-11.2358
▁abilit	-11.2358
▁95	-11.2358
▁2017	-11.2358
▁Wiig	-11.2358
▁melt	-11.2358
स्तु	-11.2358
orize	-11.2358
▁teenage	-11.2358
▁सच्चा	-11.2358
karan	-11.2358
▁strike	-11.2358
▁1920	-11.2358
▁intell	-11.2359
▁डायना	-11.2359
▁jackman	-11.2359
▁Tak	-11.2359
▁Buscem	-11.2359
▁रोग	-11.2359
▁अमित	-11.2359
▁danger	-11.2359
▁scout	-11.2359
▁6.	-11.2359
rbur	-11.2359
▁विनो	-11.236
▁bomb	-11.236
▁WWI	-11.236
▁प्रोट	-11.236
▁दाद	-11.236
▁Memor	-11.236
ordan	-11.236
ज्ञान	-11.236
▁Chief	-11.236
▁बाज	-11.2361
▁उप	-11.2361
▁चीज़	-11.2361
mination	-11.2361
ival	-11.2361
्रांस	-11.2361
▁हसी	-11.2361
▁graphics	-11.2361
▁2001	-11.2361
loud	-11.2361
▁hardwork	-11.2361
▁fou	-11.2362
▁Cumber	-11.2362
▁hahahaha	-11.2362
blish	-11.2362
▁46	-11.2362
uine	-11.2362
▁लिट	-11.2362
▁300	-11.2362
▁reci	-11.2363
▁रखो	-11.2363
▁ग्रं	-11.2363
▁imdb	-11.2364
magnet	-11.2364
RTI	-11.2364
▁motiv	-11.2364
stration	-11.2365
▁इला	-11.2365
▁कुत	-11.2365
▁क्रिस	-11.2365
▁गण	-11.2366
neur	-11.2366
▁१९०	-11.2366
▁Writ	-11.2366
▁WH	-11.2366
▁Terr	-11.2366
▁notebook	-11.2366
▁LO	-11.2367
rupt	-11.2367
▁kiss	-11.2367
▁Moo	-11.2367
▁उड़ान	-11.2367
▁brush	-11.2368
▁COM	-11.2368
▁victor	-11.2368
▁trag	-11.2369
▁CON	-11.2369
▁powerful	-11.2369
▁खतर	-11.2369
▁वय	-11.237
▁nurs	-11.237
▁GR	-11.237
ड्र	-11.237
▁1,	-11.237
sexual	-11.2371
▁बनती	-11.2371
▁Ob	-11.2371
azin	-11.2371
fam	-11.2372
▁patien	-11.2372
▁law	-11.2372
▁aunt	-11.2373
▁shout	-11.2373
▁cryptograph	-11.2373
▁frank	-11.2374
▁neg	-11.2374
ersp	-11.2374
शिया	-11.2375
▁मजाक	-11.2375
▁Robot	-11.2376
▁हल्क	-11.2377
पू	-11.2378
cide	-11.2379
▁शैली	-11.238
▁Oc	-11.238
▁भूमि	-11.238
▁piss	-11.238
▁आव	-11.2381
▁Watch	-11.2381
▁quickly	-11.2381
साय	-11.2381
▁दस	-11.2382
▁ओला	-11.2383
▁expose	-11.2384
▁tyl	-11.2384
▁भु	-11.2385
्चा	-11.2386
▁Margo	-11.2386
▁1.	-11.2386
esome	-11.2386
▁Neo	-11.2387
▁Dawson	-11.2387
▁शि	-11.2388
श्य	-11.2389
amily	-11.2389
ूब	-11.2389
IF	-11.239
▁treat	-11.2392
CREDI	-11.2395
▁Fight	-11.2395
▁खोल	-11.2395
▁asses	-11.2395
▁पार	-11.2396
▁Head	-11.2398
llusion	-11.2398
▁trade	-11.2398
HAHA	-11.2399
▁Hawk	-11.2402
▁हजारे	-11.2403
▁Tara	-11.2403
▁हक	-11.2403
▁counter	-11.2404
▁Animat	-11.2405
▁plastics	-11.2406
▁corporate	-11.2406
▁बिग	-11.2407
aisy	-11.2408
पत्र	-11.2409
▁inspiration	-11.241
▁जैसल	-11.241
▁crit	-11.2411
▁TRI	-11.2414
▁equal	-11.2414
verse	-11.2422
ताब	-11.2423
scin	-11.2429
▁उड़	-11.2434
▁White	-11.2435
ार्य	-11.2435
▁rein	-11.2437
▁goodness	-11.2439
▁पूर्व	-11.244
▁hitch	-11.2443
▁Pri	-11.2446
▁KNO	-11.2446
▁राह	-11.2449
▁lock	-11.2451
नियम	-11.2452
▁सका	-11.2454
▁बच्चन	-11.2457
▁defin	-11.2458
दर्	-11.246
▁comedian	-11.2462
arie	-11.2463
▁विन	-11.2465
▁purg	-11.2469
▁लगाया	-11.2473
ritics	-11.2475
▁jerker	-11.2477
▁१२	-11.2477
▁tease	-11.2478
MEN	-11.2483
mort	-11.2483
sec	-11.2483
▁rese	-11.2485
धारण	-11.2488
▁मास	-11.2493
रिस	-11.2494
▁serve	-11.2494
▁उत्तरी	-11.2496
ICAL	-11.2496
rcas	-11.2498
णु	-11.2499
▁एम	-11.25
▁समझत	-11.2503
issu	-11.2506
▁rain	-11.2508
rget	-11.2508
mic	-11.251
ाहिर	-11.2513
वती	-11.2514
▁अस	-11.2515
▁उन्	-11.2515
phi	-11.2518
▁कला	-11.2518
स्प	-11.2523
▁Poli	-11.2524
▁brat	-11.2524
▁विक	-11.2533
▁shu	-11.2536
▁डालन	-11.2537
▁lame	-11.2538
▁Jer	-11.2538
र्थ	-11.2543
leng	-11.2544
81	-11.2547
▁dre	-11.2549
र्ट	-11.2553
ाध्य	-11.2555
▁मिस	-11.256
install	-11.256
tract	-11.2561
वाद	-11.2562
▁aim	-11.2568
रियो	-11.257
▁PRE	-11.2577
▁मांग	-11.2585
▁mid	-11.2598
omen	-11.2601
ONE	-11.2601
▁धर	-11.2604
तिथ	-11.2633
एडो	-11.2636
AV	-11.2636
boy	-11.2637
ption	-11.2639
▁farm	-11.2645
▁३	-11.2645
▁Angelina	-11.2648
uscem	-11.2656
▁डरत	-11.2658
त्त	-11.2666
▁lone	-11.2676
ामो	-11.2677
फो	-11.2681
rist	-11.2691
esta	-11.2695
▁roll	-11.2698
▁barg	-11.2699
र्ज	-11.2701
▁जै	-11.2704
ऊंगा	-11.2712
सन्	-11.2714
▁STAR	-11.2729
▁CR	-11.2729
versi	-11.2734
▁killer	-11.2739
▁athlete	-11.2751
lace	-11.2757
▁प्यारा	-11.2762
सला	-11.2766
▁jack	-11.2775
▁mess	-11.2782
▁crow	-11.2792
▁करु	-11.2795
▁clar	-11.2796
inem	-11.28
cky	-11.2804
▁pose	-11.2818
बर्ट	-11.2824
▁promoter	-11.2826
ंतु	-11.284
हुग	-11.2843
▁doll	-11.2844
pover	-11.2849
▁warm	-11.285
▁शर्	-11.2854
NDER	-11.2856
चि	-11.2886
▁लगेग	-11.2898
▁yell	-11.2903
▁prot	-11.2922
ंटी	-11.2931
▁अमी	-11.2957
DR	-11.2963
प्	-11.2972
▁बढ़ा	-11.2979
▁हार	-11.2981
लिये	-11.2992
स्टी	-11.2997
istan	-11.3002
▁मंद	-11.301
शो	-11.301
शास	-11.3019
tale	-11.3021
▁dee	-11.3022
UES	-11.3039
▁हटा	-11.3043
▁डालत	-11.3044
llu	-11.3044
egend	-11.3064
▁adopti	-11.3071
▁imaginati	-11.3083
▁approv	-11.3083
anna	-11.3097
▁madam	-11.3107
शिष्	-11.3126
▁reli	-11.314
▁रहत	-11.3147
इ	-11.3154
▁196	-11.3161
ional	-11.3169
्कि	-11.3185
ुर्ज	-11.3195
▁sho	-11.3199
▁mil	-11.3258
▁सित	-11.3268
state	-11.3304
गिक	-11.3314
▁देखूँग	-11.3321
▁दुर	-11.3323
ाएगा	-11.3326
▁एं	-11.334
ection	-11.3373
▁engag	-11.3382
AM	-11.3383
▁कट	-11.3408
▁percepti	-11.3412
nad	-11.3422
▁assum	-11.3463
▁भरो	-11.348
▁mental	-11.3499
que	-11.3518
▁lan	-11.3528
▁alter	-11.3538
▁गु	-11.3553
▁Sti	-11.3561
cifi	-11.3564
ुए	-11.3606
भी	-11.3625
▁prash	-11.3639
uer	-11.3665
▁बचाय	-11.3668
▁बु	-11.369
ETA	-11.3693
old	-11.3695
grade	-11.3733
▁east	-11.3735
▁खड़	-11.3756
75	-11.3766
न्न	-11.3777
बोट	-11.3804
ाओं	-11.3806
र्द	-11.3815
▁fil	-11.3825
नाक	-11.3851
ourse	-11.3861
यं	-11.3879
▁उम	-11.3925
▁tolera	-11.3936
▁Capt	-11.3938
▁robo	-11.3963
▁anti	-11.3985
ार्ज	-11.401
▁हास	-11.4137
▁कहत	-11.4143
▁Lu	-11.4172
▁acco	-11.4217
गु	-11.423
▁Ami	-11.4263
▁relie	-11.4285
alk	-11.429
▁परमा	-11.4361
जन	-11.4376
कान	-11.4391
▁Jo	-11.4394
▁सेव	-11.4398
EA	-11.4404
stance	-11.4419
▁वश	-11.4422
forcer	-11.4438
▁dev	-11.445
माश	-11.4452
▁qui	-11.4457
▁del	-11.4467
करीब	-11.4501
ax	-11.4516
ological	-11.452
▁speci	-11.4526
TA	-11.4526
ME	-11.4539
झ	-11.4587
▁मानत	-11.4626
▁Cl	-11.4657
बिया	-11.4678
▁chang	-11.4691
awk	-11.4697
फिल	-11.4761
▁Qu	-11.4777
कब	-11.4797
qualifi	-11.4815
pecial	-11.4833
▁मारत	-11.484
IZE	-11.4853
etting	-11.4855
हरान	-11.4876
▁करवा	-11.4882
struc	-11.4897
imes	-11.4905
▁BE	-11.4915
▁BA	-11.4921
▁accident	-11.4925
overt	-11.4933
▁ray	-11.4941
▁जात	-11.4943
▁पक्ष	-11.4948
▁tea	-11.4949
▁cri	-11.5019
▁tim	-11.5029
ियो	-11.5042
thless	-11.5058
entur	-11.5072
▁CP	-11.5076
▁rescu	-11.509
टिंग	-11.5099
मैन	-11.5105
▁begin	-11.5105
ticipa	-11.5107
gine	-11.512
चीत	-11.513
▁explo	-11.5132
▁serv	-11.5136
▁jee	-11.5136
niston	-11.5145
▁एशिय	-11.5148
J	-11.5196
▁परम	-11.5196
।	-11.5197
PIC	-11.5197
ago	-11.5197
CRITIC	-11.5198
cross	-11.5199
विज्ञान	-11.5199
accurate	-11.5199
अल	-11.5199
कंप	-11.5199
lmighty	-11.5199
yoo	-11.52
critical	-11.52
कुछ	-11.5201
"	-11.5201
लगता	-11.5201
भाषा	-11.5201
जाए	-11.5202
पूर्व	-11.5202
beat	-11.5202
▁prop	-11.5202
ip	-11.5203
pro	-11.5203
चित्र	-11.5206
war	-11.5206
क्षम	-11.5208
लोग	-11.5216
ेंगे	-11.5223
जब	-11.523
▁VER	-11.524
AR	-11.5243
कवि	-11.525
▁Wil	-11.5251
▁हजार	-11.5254
heard	-11.5254
matic	-11.5258
ION	-11.5262
ंद्र	-11.5268
▁रू	-11.5269
▁सुरक्ष	-11.527
amil	-11.5271
▁mistake	-11.5273
ंद्रश	-11.5275
▁PL	-11.5275
logy	-11.5279
▁लोह	-11.5281
▁buil	-11.5282
bie	-11.5286
▁impl	-11.5286
▁expe	-11.5288
UN	-11.5295
cumentar	-11.5297
मात	-11.5301
ntelligen	-11.5301
sibl	-11.5301
urprising	-11.5302
▁prepare	-11.5303
▁experi	-11.5303
ैबे	-11.5304
▁विग्	-11.5305
▁femini	-11.5307
▁Somet	-11.5307
ATE	-11.5307
▁abhin	-11.5308
lick	-11.5309
imberlake	-11.5311
xtreme	-11.5313
बंध	-11.5314
विष्कार	-11.5314
ROM	-11.5316
ryptoni	-11.5316
hriller	-11.5317
bject	-11.5317
▁१८	-11.5317
ARACTER	-11.5317
acqui	-11.5317
िधि	-11.5317
▁PARA	-11.5317
▁reneroll	-11.5317
▁यूनि	-11.5317
▁सूचना	-11.5317
=	-11.5317
GHT	-11.5317
GRAPH	-11.5317
RIT	-11.5317
hiplash	-11.5317
uraskaar	-11.5317
कृष्ण	-11.5317
फ़ोर्ड	-11.5317
बॉल	-11.5317
मंडल	-11.5317
वर्धन	-11.5317
सरस्वती	-11.5317
िद्यालय	-11.5317
िर्क	-11.5317
ॅ	-11.5317
▁ANIMAT	-11.5317
▁BOX	-11.5317
▁INSPIR	-11.5317
▁MINUTE	-11.5317
▁Plastics	-11.5317
▁SCENE	-11.5317
▁Typical	-11.5317
▁UNIVERS	-11.5317
▁blackmail	-11.5317
▁celebrat	-11.5317
▁culture	-11.5317
▁declare	-11.5317
▁divorce	-11.5317
▁identi	-11.5317
▁raajakumaar	-11.5317
▁reject	-11.5317
▁responsib	-11.5317
▁retreats	-11.5317
▁sacrifice	-11.5317
▁zukerbe	-11.5317
▁अक्तूबर	-11.5317
▁आर्किमिडीज़	-11.5317
▁आलोचना	-11.5317
▁इस्लाम	-11.5317
▁ईमानदार	-11.5317
▁उकसा	-11.5317
▁उद्देश्य	-11.5317
▁एफ़िल	-11.5317
▁एवरेस्ट	-11.5317
▁ऑस्	-11.5317
▁ऑस्ट्रेलिया	-11.5317
▁कालिदास	-11.5317
▁क्लासिक	-11.5317
▁जॉर्ज	-11.5317
▁ज्ञात	-11.5317
▁टाइ	-11.5317
▁टोक्यो	-11.5317
▁दक्षिण	-11.5317
▁धमक	-11.5317
▁धार	-11.5317
▁नजदीक	-11.5317
▁पौधे	-11.5317
▁फुट	-11.5317
▁मिर्ज	-11.5317
▁मुंबई	-11.5317
▁यथार्थवाद	-11.5317
▁रत्न	-11.5317
▁राजस्थान	-11.5317
▁वाइल्ड	-11.5317
▁विकिपीडिया	-11.5317
▁सिन्हा	-11.5317
▁स्पष्ट	-11.5317
संख्या	-11.5317
▁कामयाब	-11.5317
▁कुमार	-11.5317
▁ज़्याद	-11.5317
▁मुज़फ़्फ़र	-11.5317
▁शीर्ष	-11.5317
▁सूची	-11.5317
▁स्मिथ	-11.5317
▁होगये	-11.5317
OOL	-11.5317
▁adapt	-11.5317
▁disown	-11.5317
▁manufactur	-11.5317
▁organization	-11.5317
▁sinemaa	-11.5317
▁spectac	-11.5317
▁कानून	-11.5317
▁कुश	-11.5317
▁छु	-11.5317
▁माइक	-11.5317
▁मुनि	-11.5317
▁लिपि	-11.5317
▁सच्ची	-11.5317
▁hysteri	-11.5317
▁उपाध	-11.5317
▁ठंडी	-11.5317
▁प्रतिभा	-11.5317
▁मामल	-11.5317
▁हत्या	-11.5317
▁१५	-11.5317
▁abhinetree	-11.5317
▁knock	-11.5317
▁१७	-11.5317
▁ब्लैक	-11.5317
▁Ocean	-11.5317
▁अफ्रीक	-11.5317
▁श्रे	-11.5317
▁choose	-11.5317
▁drown	-11.5317
anthrop	-11.5317
▁apol	-11.5317
▁rewind	-11.5317
▁बुला	-11.5317
इंस्ट	-11.5317
ausi	-11.5317
▁झटक	-11.5317
▁reflect	-11.5317
▁remake	-11.5317
▁शक्ति	-11.5317
▁मूर्ख	-11.5317
▁invit	-11.5317
▁ACTION	-11.5317
▁grasp	-11.5317
IDE	-11.5317
ristoph	-11.5317
BRO	-11.5317
▁PLAY	-11.5317
▁तुर्की	-11.5317
▁होगई	-11.5317
▁इंतज	-11.5318
टसन	-11.5318
▁straight	-11.5318
▁STREE	-11.5318
▁आएगी	-11.5318
▁चाहेंगे	-11.5318
पोर्ट	-11.5318
▁intro	-11.5318
▁घुस	-11.5318
lollol	-11.5318
ेन्ह	-11.5318
▁ALONE	-11.5318
▁pirate	-11.5318
▁सेंट	-11.5318
▁व्हे	-11.5318
▁लूं	-11.5318
ख्त	-11.5318
▁संभाव	-11.5318
▁स्विटज	-11.5318
▁महीने	-11.5318
▁लूँगा	-11.5318
stinctiv	-11.5318
शंकर	-11.5318
▁THR	-11.5318
▁गर्म	-11.5318
९६	-11.5318
▁accuse	-11.5318
ECT	-11.5318
▁exos	-11.5318
▁1987	-11.5319
▁उधर	-11.5319
▁कहलात	-11.5319
EAT	-11.5319
कूल	-11.5319
▁inva	-11.5319
▁hustle	-11.5319
▁रास्त	-11.5319
▁admit	-11.5319
OUND	-11.5319
▁वस्तु	-11.5319
▁बजात	-11.5319
ुर्त	-11.5319
बंधित	-11.5319
▁जिन्	-11.5319
▁TOY	-11.5319
▁तकनीक	-11.5319
▁launch	-11.5319
▁२५	-11.5319
इल	-11.5319
▁प्रजातियों	-11.5319
ार्मो	-11.5319
▁definitl	-11.532
▁russian	-11.532
▁सुपर	-11.532
epic	-11.532
▁जाऊंगा	-11.532
▁खूब	-11.532
▁remain	-11.532
▁clique	-11.532
▁योग्य	-11.532
▁EX	-11.532
▁कहूं	-11.532
ALLY	-11.532
▁NOT	-11.532
▁अत्य	-11.532
▁बाल्	-11.5321
▁अल्फ	-11.5321
▁आर्य	-11.5321
▁Bas	-11.5321
▁चन्द्र	-11.5321
▁spice	-11.5321
▁पहन	-11.5321
▁trans	-11.5321
▁गणित	-11.5321
wave	-11.5321
▁चाहिये	-11.5321
▁पौ	-11.5321
▁मिलेंगे	-11.5321
सिस	-11.5322
▁statement	-11.5322
▁vol	-11.5322
▁अटल	-11.5322
▁कपूर	-11.5322
स्कार	-11.5322
ANT	-11.5322
▁IMDb	-11.5322
▁succeed	-11.5322
▁राग	-11.5322
▁rival	-11.5322
ipal	-11.5322
cade	-11.5323
▁2015	-11.5323
▁दीख	-11.5323
▁माप	-11.5324
▁मुझसे	-11.5324
फ़्री	-11.5324
▁bias	-11.5324
CLE	-11.5324
▁जगा	-11.5324
alist	-11.5325
▁लीग	-11.5325
▁लाख	-11.5325
▁बेह	-11.5325
▁मेड	-11.5325
नंद	-11.5325
▁Mort	-11.5325
▁खेलते	-11.5325
GG	-11.5325
▁unconscious	-11.5326
▁गोब	-11.5326
appa	-11.5326
▁देगा	-11.5326
▁veter	-11.5327
▁सलमा	-11.5327
ulent	-11.5327
▁abhinet	-11.5327
▁नौ	-11.5328
▁ओके	-11.5329
ALS	-11.5329
▁फ़र	-11.533
▁cred	-11.533
लय	-11.533
▁feminist	-11.533
▁elev	-11.533
▁बीस	-11.533
िक्रमा	-11.5331
▁सुल्	-11.5331
▁crash	-11.5331
▁मस्त	-11.5331
राण	-11.5331
▁देवता	-11.5332
▁लालच	-11.5332
▁harv	-11.5333
amain	-11.5333
solve	-11.5333
▁गति	-11.5335
▁goers	-11.5335
hold	-11.5335
▁prof	-11.5335
▁promoti	-11.5336
▁ओर	-11.5336
▁auto	-11.5336
NG	-11.5336
eople	-11.5336
ICK	-11.5336
▁सदी	-11.5336
cter	-11.5337
▁Ahh	-11.5337
▁सुनो	-11.5339
▁chemi	-11.5339
▁trial	-11.5339
▁crypto	-11.5339
roj	-11.5339
▁shall	-11.5339
▁carry	-11.534
olitical	-11.5341
TER	-11.5341
▁Mom	-11.5341
enny	-11.5342
▁anim	-11.5343
EEL	-11.5344
▁Rand	-11.5344
▁सन	-11.5346
▁CH	-11.5348
▁चुना	-11.5349
▁भेजा	-11.5349
▁impli	-11.5349
▁पकी	-11.5349
शिक्ष	-11.5349
▁प्रो	-11.535
▁hugh	-11.5351
acia	-11.5351
▁हौं	-11.5351
▁tig	-11.5353
▁Ph	-11.5353
▁reach	-11.5353
▁Indian	-11.5354
ALL	-11.5355
roke	-11.5355
▁पाकिस्तान	-11.5355
ूप	-11.5355
▁afternoon	-11.5355
्वेद	-11.5355
न्स	-11.5355
fus	-11.5356
द्य	-11.5356
▁विद्या	-11.5357
▁Epi	-11.5358
म्मा	-11.5358
िकल	-11.5359
्वल	-11.5359
▁wonderwoman	-11.536
▁चाहोगे	-11.536
राज	-11.5362
▁बोलो	-11.5362
▁quick	-11.5364
▁पट	-11.5364
▁कराया	-11.5365
layer	-11.5365
▁सुरक्षा	-11.5365
▁sum	-11.5368
▁वरन	-11.5369
▁खु	-11.5369
▁आजात	-11.5369
▁committe	-11.5369
69	-11.537
RMA	-11.537
gent	-11.5371
▁eight	-11.5373
▁addit	-11.5375
षण	-11.5376
gras	-11.5376
चस	-11.5377
▁99	-11.5383
हाहा	-11.5384
EST	-11.5385
evita	-11.5385
▁जर्मनी	-11.5385
▁dak	-11.5386
▁buff	-11.5387
▁पिन	-11.5387
२६	-11.5389
▁gal	-11.539
▁compl	-11.5392
opic	-11.5392
▁mc	-11.5392
तीस	-11.5393
मित्र	-11.5396
▁Q	-11.5396
licki	-11.5397
लीज़	-11.5397
▁तान	-11.5398
▁TIMES	-11.5398
▁ग्रह	-11.5399
ज्ज	-11.54
VERSI	-11.5403
▁awar	-11.5403
YE	-11.5403
ल्ले	-11.5403
▁इस्त	-11.5406
२३	-11.5408
१९९	-11.5408
▁फैल	-11.5409
▁lesson	-11.5411
▁interst	-11.5415
▁विश्वको	-11.5416
nack	-11.5418
▁prost	-11.5418
▁rave	-11.5423
▁गुस्	-11.5424
▁Maryl	-11.5425
ues	-11.5425
▁जिम्म	-11.5429
▁कोयल	-11.543
▁PIC	-11.5437
▁NY	-11.5438
▁BET	-11.5438
▁।	-11.5439
ेरन	-11.5441
▁क्षम	-11.5442
▁कवि	-11.5448
▁Hall	-11.545
▁hah	-11.5455
▁que	-11.5456
▁testing	-11.5456
▁nail	-11.5461
लैव	-11.5464
stant	-11.5465
हज़	-11.5466
▁Find	-11.5474
▁Had	-11.5475
▁Comed	-11.5476
▁अंक	-11.5476
▁strict	-11.5481
▁दिखती	-11.549
इए	-11.549
राह	-11.5492
▁पेशे	-11.5494
▁initia	-11.5494
▁scu	-11.5495
▁pou	-11.5499
NA	-11.5504
▁explore	-11.5506
यदा	-11.5515
UH	-11.5516
ntee	-11.5525
▁बेल	-11.553
▁लोहा	-11.5533
▁wel	-11.5534
ury	-11.5538
▁pee	-11.5538
▁मैथ	-11.5538
UT	-11.5539
▁Charl	-11.5539
62	-11.5556
▁bully	-11.5562
UG	-11.5565
good	-11.5569
llar	-11.5572
▁हुय	-11.5573
icipa	-11.5582
PU	-11.5584
▁gener	-11.5585
▁height	-11.5587
▁ACT	-11.5598
टेल	-11.56
िष्क	-11.5609
▁बाल	-11.5613
हेल	-11.5613
▁henr	-11.5614
ENR	-11.562
विड	-11.5623
▁Dud	-11.5624
▁Dav	-11.5632
▁रंग	-11.564
▁बताऊंग	-11.5652
गीत	-11.5681
SP	-11.5689
reply	-11.57
▁ईसा	-11.5703
anya	-11.5715
इड	-11.572
सिल	-11.5764
▁पहुँ	-11.5765
unde	-11.5772
finance	-11.5779
▁जेस	-11.5785
▁CITI	-11.5804
ोटा	-11.5818
ताप	-11.5826
OG	-11.5835
भट	-11.5851
वस	-11.5873
ची	-11.5877
▁ऑक्	-11.5888
ंग्स	-11.5898
▁अभिनेता	-11.5905
▁Sort	-11.5909
▁supr	-11.5913
ersonal	-11.5915
मेल	-11.5928
▁शुक्र	-11.5935
साफ	-11.5946
▁करेंग	-11.5964
▁LEA	-11.5983
▁Rem	-11.5994
nimat	-11.5995
िन्	-11.6003
LG	-11.6007
▁mari	-11.6031
जाति	-11.6095
NY	-11.6095
iff	-11.6142
द्दा	-11.6149
▁mathematic	-11.6176
▁biologi	-11.6189
▁रोम	-11.6216
कल्प	-11.6243
▁उदा	-11.6261
nforcer	-11.6281
▁drive	-11.6297
टेस्	-11.6311
▁तमा	-11.6314
▁acc	-11.6322
ग्री	-11.6329
gain	-11.6361
▁एरिक	-11.637
▁fave	-11.6444
टेरे	-11.6454
▁Ci	-11.6473
▁हार्	-11.6475
▁nav	-11.6478
मोल	-11.6508
▁chee	-11.6546
▁subst	-11.6556
ेंस	-11.6566
PLE	-11.6576
डिया	-11.6583
88	-11.6586
▁meme	-11.6588
▁connecti	-11.6608
▁जह	-11.6614
रेल	-11.6619
▁मेस	-11.6622
रिन	-11.6638
lock	-11.6643
भरत	-11.665
turned	-11.6662
▁बड	-11.6672
cup	-11.6677
main	-11.6682
▁prom	-11.6695
३२	-11.67
▁Afg	-11.6705
▁डिक	-11.6706
येगा	-11.676
text	-11.6778
▁meri	-11.6803
64	-11.6834
▁jona	-11.6834
▁mini	-11.6847
▁निकलत	-11.6904
liam	-11.6927
▁जीतत	-11.6942
▁intrigue	-11.6968
▁prath	-11.6998
OMAN	-11.7009
▁Cap	-11.7013
ोड	-11.7027
्थ	-11.7033
▁चत	-11.7051
form	-11.7059
RY	-11.7072
ग्न	-11.7075
▁rela	-11.7082
दीन	-11.7084
लाल	-11.7084
र्ड	-11.7101
▁Pre	-11.7114
kh	-11.714
माल	-11.7209
ताइ	-11.7215
▁करनेवाल	-11.7305
▁कप	-11.7309
▁collect	-11.7335
▁फि	-11.7338
किस्म	-11.7375
ुड	-11.7437
▁78	-11.7438
▁बचात	-11.7459
▁हु	-11.7461
CE	-11.7464
▁lov	-11.7475
ोजी	-11.7498
cu	-11.751
ैक्स	-11.7529
oge	-11.7532
ुण	-11.755
reme	-11.7599
01	-11.76
▁includ	-11.7602
▁realiz	-11.766
omic	-11.7713
centr	-11.7733
▁Reven	-11.7758
24	-11.7763
▁१९३	-11.7777
▁नव	-11.7811
पूर	-11.7817
िक्र	-11.7876
▁repl	-11.7923
रुद्	-11.7953
▁rig	-11.7957
वेल	-11.7991
▁टेर	-11.8026
▁एट	-11.8051
▁viv	-11.8057
िकारी	-11.8064
▁इन्द	-11.8088
▁spec	-11.809
▁संक	-11.81
MIL	-11.8148
जान	-11.8172
▁contra	-11.8215
▁driv	-11.8215
▁नाही	-11.8244
▁compensat	-11.8297
▁Mac	-11.8305
rgot	-11.834
▁contin	-11.8345
▁experienc	-11.8397
द्द	-11.8397
ij	-11.8436
प्पा	-11.8436
imate	-11.8451
िपा	-11.8463
र्फ	-11.8474
▁dunki	-11.8519
▁लड़त	-11.8525
▁oversle	-11.857
मांस	-11.8594
lip	-11.8601
▁NO	-11.8649
ल्ब	-11.8654
NDE	-11.8654
▁संत	-11.8671
aria	-11.868
तमान	-11.8683
ह्म	-11.8688
िआ	-11.8691
▁अभिनेत	-11.8708
▁complet	-11.8717
AMA	-11.8731
्टि	-11.8786
▁WO	-11.8816
ART	-11.8818
liz	-11.8828
किस	-11.8863
थि	-11.8875
▁HU	-11.8877
ैक	-11.8936
▁scorc	-11.8937
▁रहो	-11.8948
▁सिखा	-11.8955
iyon	-11.896
▁enim	-11.8961
Fi	-11.9006
ोग	-11.9008
काल	-11.9011
▁pla	-11.9015
lliga	-11.902
कप्	-11.9039
्वप्	-11.9045
चाई	-11.9059
bul	-11.906
BL	-11.9069
tagon	-11.9078
▁dunk	-11.9084
prise	-11.9092
▁Ru	-11.911
act	-11.9113
allowe	-11.9114
ET	-11.9171
bi	-11.9172
uri	-11.918
चास	-11.9214
▁माह	-11.9245
rime	-11.926
जस्टि	-11.9264
vint	-11.9274
nitial	-11.9281
▁assistan	-11.9287
▁Biographi	-11.9295
कार्त	-11.9306
▁rob	-11.9308
▁exp	-11.9319
RD	-11.9319
vita	-11.9331
▁hug	-11.9338
नागर	-11.9348
evan	-11.9351
ियम	-11.9353
▁आए	-11.9354
OCK	-11.9358
▁लंब	-11.9361
▁Hav	-11.9362
▁कुं	-11.9373
▁Phil	-11.9378
▁princ	-11.9398
जात	-11.94
▁बनाएं	-11.9402
▁movi	-11.9408
▁Gu	-11.941
▁struggl	-11.9411
वाल	-11.9413
▁clos	-11.9418
▁wai	-11.9418
Q	-11.9422
TIMES	-11.9422
quick	-11.9423
nail	-11.9424
equal	-11.9424
SCORE	-11.9424
craft	-11.9424
girlfriend	-11.9425
कथा	-11.9425
courage	-11.9425
prov	-11.9425
burn	-11.9425
हंस	-11.9425
राष्ट्रीय	-11.9426
inspir	-11.9426
adventure	-11.9426
close	-11.9426
गुप्त	-11.9426
typical	-11.9426
America	-11.9426
dragon	-11.9426
disney	-11.9426
पसंद	-11.9426
movie	-11.9427
production	-11.9427
hmm	-11.9427
founder	-11.9428
▁famil	-11.9428
TRI	-11.9429
fiction	-11.9429
84	-11.9432
walk	-11.9432
power	-11.9432
भाव	-11.9433
perfect	-11.9434
कभी	-11.9435
help	-11.9435
सकता	-11.9437
लाइ	-11.9438
साथ	-11.9439
ग्रह	-11.9442
56	-11.9445
ccidental	-11.9451
विन	-11.9455
icho	-11.9455
ाइट	-11.9461
यह	-11.9461
र्वे	-11.9466
▁देखूं	-11.9467
▁trea	-11.9468
लेक्	-11.9475
▁politic	-11.9477
▁चाहोग	-11.948
▁SA	-11.9481
▁तुम्ह	-11.9482
IO	-11.9485
▁overwhelm	-11.9486
ipan	-11.949
ोल्ड	-11.9492
▁विद्य	-11.9493
▁भेज	-11.9496
▁शैल	-11.9498
▁चुन	-11.95
▁commit	-11.9501
▁पाव	-11.9503
▁दिय	-11.9504
bort	-11.9506
▁खिल	-11.9507
राम	-11.951
ोख	-11.9511
ographer	-11.9512
तार	-11.9516
LATE	-11.9517
▁sui	-11.9517
opoli	-11.9518
▁महत्	-11.9519
umbl	-11.952
क्रि	-11.952
क्रम	-11.9524
logical	-11.9525
▁हिं	-11.9526
nstinct	-11.9527
धिक	-11.9527
cientific	-11.9527
mdb	-11.9528
▁Amaz	-11.9529
▁threat	-11.9529
DEA	-11.9532
▁recal	-11.9532
▁Underst	-11.9532
apers	-11.9533
ancock	-11.9534
dul	-11.9535
▁accura	-11.9535
▁dram	-11.9535
▁डाय	-11.9537
ुच	-11.9537
▁Fou	-11.9538
evad	-11.9538
cita	-11.9539
लीफा	-11.9539
▁अधि	-11.9539
ल्ड	-11.9539
ifficult	-11.9539
ntertain	-11.9539
ICH	-11.954
eview	-11.954
▁उसमे	-11.954
edia	-11.954
सोस	-11.954
▁vict	-11.9541
abbit	-11.9541
▁russ	-11.9541
च्च	-11.9542
▁संबंध	-11.9542
hurch	-11.9542
ऊँग	-11.9542
omputer	-11.9542
hief	-11.9542
oooooo	-11.9542
▁धड़	-11.9542
▁सौ	-11.9542
istorical	-11.9542
▁खो	-11.9543
ORT	-11.9543
ootopia	-11.9543
tudio	-11.9543
fession	-11.9543
▁INTEREST	-11.9543
▁शक्	-11.9543
heimer	-11.9543
▁उद्	-11.9543
फ्री	-11.9543
°	-11.9543
crimina	-11.9543
OP	-11.9543
uuuuu	-11.9543
▁Khaas	-11.9543
▁बायो	-11.9543
कुर्ब	-11.9543
▁CasaBlanca	-11.9543
▁ENJOY	-11.9543
▁Enjoy	-11.9543
▁apparatus	-11.9543
▁hijack	-11.9543
▁kriptograaph	-11.9543
▁recruit	-11.9543
▁गैंग	-11.9543
▁पद्म	-11.9543
9/10	-11.9543
ACHI	-11.9543
EEEEE	-11.9543
ITZ	-11.9543
NCES	-11.9543
POI	-11.9543
Plasse	-11.9543
SEQUE	-11.9543
SSING	-11.9543
TTLE	-11.9543
URI	-11.9543
[	-11.9543
allister	-11.9543
libr	-11.9543
इंसाफ	-11.9543
एसए	-11.9543
गोत्र	-11.9543
ग्राफ	-11.9543
फॉर्म	-11.9543
बुख़ारी	-11.9543
शिंगटन	-11.9543
स्ट्रॉ	-11.9543
▁CAROLINA	-11.9543
▁COLOR	-11.9543
▁COMPET	-11.9543
▁Calhoun	-11.9543
▁Columbus	-11.9543
▁ILOKI	-11.9543
▁LOKI	-11.9543
▁LeighAnne	-11.9543
▁Origin	-11.9543
▁POS	-11.9543
▁PRABHAAT	-11.9543
▁RIGHT	-11.9543
▁TRICK	-11.9543
▁Williams	-11.9543
▁aalochak	-11.9543
▁admire	-11.9543
▁applaud	-11.9543
▁bhateeje	-11.9543
▁carolina	-11.9543
▁fwfwfwfw	-11.9543
▁homosexual	-11.9543
▁manipulate	-11.9543
▁reminisc	-11.9543
▁volunteer	-11.9543
▁इमाओ	-11.9543
▁उत्सुक	-11.9543
▁ऋतु	-11.9543
▁ऋष	-11.9543
▁एक्सचेंज	-11.9543
▁कुआ	-11.9543
▁कैलीरी	-11.9543
▁गाँव	-11.9543
▁ठाकुर	-11.9543
▁त्रिप	-11.9543
▁देखियेगा	-11.9543
▁दौड़े	-11.9543
▁धूल	-11.9543
▁परिणाम	-11.9543
▁पहंच	-11.9543
▁पहाड़	-11.9543
▁प्रारम्भ	-11.9543
▁फिरौती	-11.9543
▁बंदूक	-11.9543
▁बिस्मार्क	-11.9543
▁बैठ	-11.9543
▁मणिपाल	-11.9543
▁मुखर्जी	-11.9543
▁मुम्बई	-11.9543
▁मैरीलैंड	-11.9543
▁रात्रि	-11.9543
▁लपेट	-11.9543
▁विरोध	-11.9543
▁विविध	-11.9543
▁शताब्दी	-11.9543
▁शाकु	-11.9543
▁शिवाजी	-11.9543
▁सिनेमा	-11.9543
▁स्त्री	-11.9543
▁१९८१	-11.9543
नीकांत	-11.9543
▁:-)	-11.9543
▁Cartoon	-11.9543
▁JFK	-11.9543
▁PRI	-11.9543
▁aggregat	-11.9543
▁audition	-11.9543
▁mirren	-11.9543
▁oooh	-11.9543
▁अनुभव	-11.9543
▁एजेंस	-11.9543
▁कार्टून	-11.9543
▁कुसुम	-11.9543
▁चिढ़	-11.9543
▁दर्शा	-11.9543
▁दुर्भाग्य	-11.9543
▁फैमिलिय	-11.9543
▁मिनट	-11.9543
▁रोमानिया	-11.9543
▁सेकेण्ड	-11.9543
▁हँस	-11.9543
agne	-11.9543
opeep	-11.9543
▁DRE	-11.9543
▁SOCI	-11.9543
▁VIV	-11.9543
▁trigger	-11.9543
▁चमक	-11.9543
▁भोज	-11.9543
▁यूनान	-11.9543
▁Kirby	-11.9543
▁खन्ना	-11.9543
▁लक्षद्वीप	-11.9543
▁स्पेन	-11.9543
POINT	-11.9543
repre	-11.9543
▁द्रव	-11.9543
▁मलिक	-11.9543
▁portrait	-11.9543
▁component	-11.9543
▁चिल्ला	-11.9543
▁सदस्य	-11.9543
▁rearrang	-11.9543
▁खिलौन	-11.9543
ड्ड	-11.9543
▁haaha	-11.9543
▁robert	-11.9543
कुन्द	-11.9543
▁acutall	-11.9543
▁Hoffa	-11.9543
▁kingdom	-11.9543
▁Keep	-11.9543
▁draft	-11.9543
पुत्र	-11.9543
▁LEO	-11.9543
▁सभा	-11.9543
▁सेंगर	-11.9543
फोर्ड	-11.9543
▁approach	-11.9543
▁आतं	-11.9543
▁categor	-11.9543
▁फीट	-11.9543
▁ब्ल	-11.9543
▁ploy	-11.9543
▁गोया	-11.9543
▁रिश्त	-11.9543
▁लडक	-11.9543
▁attach	-11.9543
▁Simpl	-11.9543
▁२०२	-11.9543
fficer	-11.9543
मैट	-11.9543
▁१८८	-11.9544
▁arriv	-11.9544
हिता	-11.9544
▁परीक्ष	-11.9544
▁प्रेस	-11.9544
द्योग	-11.9544
▁Lurhmann	-11.9544
▁उपमहाद्वीप	-11.9544
▁बेचैन	-11.9544
▁satirical	-11.9544
TRU	-11.9544
▁umm	-11.9544
▁व्यक्तित्व	-11.9544
▁स्थान	-11.9544
▁३३	-11.9544
▁इंडिया	-11.9544
▁नेपाल	-11.9544
Z	-12.0188
‘	-12.6881
ऐ	-12.6881
%	-12.6883
ॠ	-12.7
₹	-12.7
‍	-12.7
ऎ	-14.5533
ऋ	-14.5534
^	-14.5535
#	-14.5536
\	-14.5537
́	-14.5538
ऑ	-14.5539
*	-14.554
;	-14.5541
ञ	-14.5542
ृ	-14.5543
ॉ	-14.5544
/	-14.5545
ढ	-14.5546
q	-14.5547
ध	-14.5548
O	-14.5549
!	-14.555
औ	-14.5551
छ	-14.5552
