<unk>	0
<s>	0
</s>	0
<0x00>	0
<0x01>	0
<0x02>	0
<0x03>	0
<0x04>	0
<0x05>	0
<0x06>	0
<0x07>	0
<0x08>	0
<0x09>	0
<0x0A>	0
<0x0B>	0
<0x0C>	0
<0x0D>	0
<0x0E>	0
<0x0F>	0
<0x10>	0
<0x11>	0
<0x12>	0
<0x13>	0
<0x14>	0
<0x15>	0
<0x16>	0
<0x17>	0
<0x18>	0
<0x19>	0
<0x1A>	0
<0x1B>	0
<0x1C>	0
<0x1D>	0
<0x1E>	0
<0x1F>	0
<0x20>	0
<0x21>	0
<0x22>	0
<0x23>	0
<0x24>	0
<0x25>	0
<0x26>	0
<0x27>	0
<0x28>	0
<0x29>	0
<0x2A>	0
<0x2B>	0
<0x2C>	0
<0x2D>	0
<0x2E>	0
<0x2F>	0
<0x30>	0
<0x31>	0
<0x32>	0
<0x33>	0
<0x34>	0
<0x35>	0
<0x36>	0
<0x37>	0
<0x38>	0
<0x39>	0
<0x3A>	0
<0x3B>	0
<0x3C>	0
<0x3D>	0
<0x3E>	0
<0x3F>	0
<0x40>	0
<0x41>	0
<0x42>	0
<0x43>	0
<0x44>	0
<0x45>	0
<0x46>	0
<0x47>	0
<0x48>	0
<0x49>	0
<0x4A>	0
<0x4B>	0
<0x4C>	0
<0x4D>	0
<0x4E>	0
<0x4F>	0
<0x50>	0
<0x51>	0
<0x52>	0
<0x53>	0
<0x54>	0
<0x55>	0
<0x56>	0
<0x57>	0
<0x58>	0
<0x59>	0
<0x5A>	0
<0x5B>	0
<0x5C>	0
<0x5D>	0
<0x5E>	0
<0x5F>	0
<0x60>	0
<0x61>	0
<0x62>	0
<0x63>	0
<0x64>	0
<0x65>	0
<0x66>	0
<0x67>	0
<0x68>	0
<0x69>	0
<0x6A>	0
<0x6B>	0
<0x6C>	0
<0x6D>	0
<0x6E>	0
<0x6F>	0
<0x70>	0
<0x71>	0
<0x72>	0
<0x73>	0
<0x74>	0
<0x75>	0
<0x76>	0
<0x77>	0
<0x78>	0
<0x79>	0
<0x7A>	0
<0x7B>	0
<0x7C>	0
<0x7D>	0
<0x7E>	0
<0x7F>	0
<0x80>	0
<0x81>	0
<0x82>	0
<0x83>	0
<0x84>	0
<0x85>	0
<0x86>	0
<0x87>	0
<0x88>	0
<0x89>	0
<0x8A>	0
<0x8B>	0
<0x8C>	0
<0x8D>	0
<0x8E>	0
<0x8F>	0
<0x90>	0
<0x91>	0
<0x92>	0
<0x93>	0
<0x94>	0
<0x95>	0
<0x96>	0
<0x97>	0
<0x98>	0
<0x99>	0
<0x9A>	0
<0x9B>	0
<0x9C>	0
<0x9D>	0
<0x9E>	0
<0x9F>	0
<0xA0>	0
<0xA1>	0
<0xA2>	0
<0xA3>	0
<0xA4>	0
<0xA5>	0
<0xA6>	0
<0xA7>	0
<0xA8>	0
<0xA9>	0
<0xAA>	0
<0xAB>	0
<0xAC>	0
<0xAD>	0
<0xAE>	0
<0xAF>	0
<0xB0>	0
<0xB1>	0
<0xB2>	0
<0xB3>	0
<0xB4>	0
<0xB5>	0
<0xB6>	0
<0xB7>	0
<0xB8>	0
<0xB9>	0
<0xBA>	0
<0xBB>	0
<0xBC>	0
<0xBD>	0
<0xBE>	0
<0xBF>	0
<0xC0>	0
<0xC1>	0
<0xC2>	0
<0xC3>	0
<0xC4>	0
<0xC5>	0
<0xC6>	0
<0xC7>	0
<0xC8>	0
<0xC9>	0
<0xCA>	0
<0xCB>	0
<0xCC>	0
<0xCD>	0
<0xCE>	0
<0xCF>	0
<0xD0>	0
<0xD1>	0
<0xD2>	0
<0xD3>	0
<0xD4>	0
<0xD5>	0
<0xD6>	0
<0xD7>	0
<0xD8>	0
<0xD9>	0
<0xDA>	0
<0xDB>	0
<0xDC>	0
<0xDD>	0
<0xDE>	0
<0xDF>	0
<0xE0>	0
<0xE1>	0
<0xE2>	0
<0xE3>	0
<0xE4>	0
<0xE5>	0
<0xE6>	0
<0xE7>	0
<0xE8>	0
<0xE9>	0
<0xEA>	0
<0xEB>	0
<0xEC>	0
<0xED>	0
<0xEE>	0
<0xEF>	0
<0xF0>	0
<0xF1>	0
<0xF2>	0
<0xF3>	0
<0xF4>	0
<0xF5>	0
<0xF6>	0
<0xF7>	0
<0xF8>	0
<0xF9>	0
<0xFA>	0
<0xFB>	0
<0xFC>	0
<0xFD>	0
<0xFE>	0
<0xFF>	0
▁t	-0
▁a	-1
in	-2
he	-3
re	-4
on	-5
er	-6
▁the	-7
▁s	-8
at	-9
▁c	-10
an	-11
or	-12
is	-13
nd	-14
ou	-15
es	-16
it	-17
▁w	-18
en	-19
▁p	-20
ing	-21
▁f	-22
▁o	-23
▁m	-24
▁and	-25
▁b	-26
al	-27
▁to	-28
▁in	-29
▁d	-30
le	-31
ar	-32
▁of	-33
ic	-34
ion	-35
ed	-36
ro	-37
as	-38
▁h	-39
▁th	-40
▁e	-41
ct	-42
▁y	-43
om	-44
▁l	-45
▁you	-46
ent	-47
us	-48
▁re	-49
ve	-50
▁A	-51
▁n	-52
et	-53
▁is	-54
▁T	-55
▁I	-56
il	-57
im	-58
▁g	-59
ist	-60
ow	-61
ant	-62
el	-63
st	-64
id	-65
▁for	-66
ce	-67
ss	-68
am	-69
ch	-70
▁be	-71
▁that	-72
ol	-73
ot	-74
ation	-75
ut	-76
ly	-77
ig	-78
▁st	-79
ay	-80
▁on	-81
▁it	-82
if	-83
ith	-84
▁pro	-85
▁can	-86
▁U	-87
ul	-88
ver	-89
▁con	-90
ra	-91
▁an	-92
od	-93
▁S	-94
▁or	-95
▁with	-96
ur	-97
un	-98
▁as	-99
▁are	-100
ir	-101
▁us	-102
▁C	-103
▁The	-104
se	-105
ser	-106
ate	-107
ssist	-108
ge	-109
▁ex	-110
▁com	-111
pe	-112
ssistant	-113
ke	-114
um	-115
ad	-116
▁Assistant	-117
ld	-118
▁wh	-119
▁al	-120
▁User	-121
qu	-122
ers	-123
her	-124
ure	-125
▁de	-126
▁your	-127
ter	-128
▁H	-129
ess	-130
▁v	-131
ri	-132
ab	-133
▁he	-134
em	-135
op	-136
▁W	-137
ere	-138
ore	-139
▁su	-140
out	-141
ity	-142
▁P	-143
▁1	-144
ain	-145
pl	-146
ck	-147
ould	-148
th	-149
est	-150
▁ne	-151
igh	-152
▁-	-153
pt	-154
▁ha	-155
ment	-156
ort	-157
▁M	-158
ive	-159
ill	-160
and	-161
ies	-162
ect	-163
▁r	-164
▁im	-165
▁"	-166
▁ch	-167
nt	-168
▁le	-169
▁B	-170
▁(	-171
ions	-172
ome	-173
pp	-174
rom	-175
▁by	-176
▁D	-177
▁have	-178
▁se	-179
ine	-180
▁comp	-181
iz	-182
ight	-183
▁F	-184
per	-185
ial	-186
▁E	-187
iv	-188
▁not	-189
▁en	-190
▁me	-191
▁ma	-192
▁Th	-193
▁sh	-194
age	-195
▁pl	-196
▁R	-197
ical	-198
ide	-199
▁from	-200
▁wor	-201
oc	-202
▁ab	-203
ud	-204
our	-205
ame	-206
ther	-207
▁u	-208
▁imp	-209
art	-210
all	-211
▁G	-212
▁2	-213
act	-214
▁int	-215
``	-216
os	-217
ell	-218
▁we	-219
▁L	-220
og	-221
▁O	-222
ust	-223
▁ad	-224
▁=	-225
orm	-226
are	-227
ile	-228
ich	-229
▁this	-230
cl	-231
▁at	-232
▁k	-233
▁more	-234
able	-235
▁cont	-236
ult	-237
▁li	-238
▁their	-239
▁res	-240
ire	-241
ry	-242
▁other	-243
▁do	-244
▁In	-245
▁This	-246
ations	-247
rou	-248
ard	-249
ff	-250
▁N	-251
ind	-252
vel	-253
form	-254
king	-255
▁pre	-256
ag	-257
ction	-258
ie	-259
ple	-260
▁which	-261
▁te	-262
cess	-263
▁use	-264
ue	-265
▁some	-266
ang	-267
ance	-268
--	-269
ase	-270
lp	-271
▁whe	-272
▁cre	-273
ack	-274
▁un	-275
ces	-276
so	-277
low	-278
▁will	-279
ime	-280
▁Y	-281
▁help	-282
▁3	-283
ence	-284
ble	-285
gh	-286
▁was	-287
▁qu	-288
ep	-289
▁It	-290
▁such	-291
iff	-292
▁sc	-293
ans	-294
▁spe	-295
▁cl	-296
ous	-297
du	-298
ost	-299
▁क	-300
▁go	-301
ach	-302
▁but	-303
▁has	-304
00	-305
ong	-306
ata	-307
ast	-308
▁Wh	-309
oo	-310
ated	-311
▁if	-312
▁fe	-313
ks	-314
▁any	-315
▁ac	-316
▁so	-317
▁sy	-318
ite	-319
▁may	-320
▁diff	-321
av	-322
ary	-323
▁man	-324
ass	-325
ign	-326
▁they	-327
ac	-328
▁mod	-329
ual	-330
▁would	-331
ific	-332
ory	-333
ber	-334
▁j	-335
ap	-336
▁tra	-337
▁about	-338
▁also	-339
now	-340
clud	-341
ace	-342
ice	-343
▁comm	-344
ode	-345
ition	-346
ject	-347
▁need	-348
nder	-349
ip	-350
▁up	-351
▁out	-352
▁like	-353
int	-354
▁ar	-355
stem	-356
xt	-357
▁my	-358
ru	-359
▁How	-360
▁data	-361
▁prov	-362
one	-363
▁ro	-364
▁how	-365
▁dis	-366
▁includ	-367
▁its	-368
▁import	-369
▁there	-370
▁ev	-371
▁po	-372
▁fun	-373
▁them	-374
▁cons	-375
ors	-376
▁exam	-377
▁used	-378
▁know	-379
ens	-380
▁time	-381
ient	-382
▁per	-383
```	-384
▁using	-385
▁*	-386
▁J	-387
▁system	-388
etw	-389
end	-390
lo	-391
▁could	-392
▁spec	-393
▁sp	-394
▁```	-395
put	-396
▁differe	-397
▁4	-398
ating	-399
ail	-400
▁one	-401
ular	-402
▁all	-403
ari	-404
▁over	-405
▁tr	-406
▁You	-407
▁des	-408
▁new	-409
ft	-410
ress	-411
▁into	-412
ram	-413
ount	-414
ater	-415
ely	-416
▁ser	-417
▁If	-418
▁ta	-419
▁make	-420
ning	-421
ics	-422
▁1.	-423
led	-424
velop	-425
▁add	-426
ub	-427
▁St	-428
▁code	-429
ful	-430
erm	-431
▁inter	-432
▁|	-433
ize	-434
▁am	-435
▁What	-436
ild	-437
▁these	-438
▁way	-439
▁what	-440
ates	-441
▁col	-442
ature	-443
com	-444
▁num	-445
▁5	-446
▁pr	-447
▁under	-448
ally	-449
ings	-450
ord	-451
▁app	-452
pen	-453
▁ind	-454
▁gen	-455
aus	-456
▁ke	-457
▁em	-458
ons	-459
▁his	-460
▁ap	-461
ible	-462
▁part	-463
▁prog	-464
ree	-465
▁Here	-466
ick	-467
▁ty	-468
▁who	-469
▁develop	-470
eth	-471
▁pe	-472
▁example	-473
elf	-474
ove	-475
ased	-476
con	-477
ish	-478
▁ob	-479
▁function	-480
▁set	-481
ents	-482
▁sim	-483
▁inv	-484
very	-485
ility	-486
▁requ	-487
▁#	-488
olog	-489
vers	-490
▁eff	-491
▁pers	-492
▁act	-493
▁different	-494
ll	-495
rit	-496
lect	-497
ia	-498
ments	-499
▁model	-500
▁V	-501
▁work	-502
▁hum	-503
▁inst	-504
▁val	-505
▁each	-506
▁bu	-507
ower	-508
▁should	-509
ever	-510
row	-511
▁important	-512
ities	-513
▁<	-514
rib	-515
▁play	-516
angu	-517
▁lear	-518
▁many	-519
les	-520
ound	-521
▁rel	-522
▁2.	-523
▁when	-524
▁str	-525
▁than	-526
ange	-527
▁ph	-528
▁process	-529
als	-530
▁vari	-531
ose	-532
get	-533
tain	-534
▁3.	-535
▁fol	-536
ark	-537
urn	-538
een	-539
ript	-540
▁langu	-541
ict	-542
▁exper	-543
rough	-544
ough	-545
pend	-546
▁create	-547
tern	-548
ph	-549
▁get	-550
cre	-551
ear	-552
▁inform	-553
ath	-554
cur	-555
▁K	-556
▁gener	-557
round	-558
ative	-559
▁form	-560
▁program	-561
▁where	-562
▁{	-563
etween	-564
ak	-565
▁expl	-566
▁reg	-567
▁sm	-568
ov	-569
ract	-570
▁between	-571
res	-572
yth	-573
ise	-574
▁want	-575
ience	-576
▁tw	-577
▁provide	-578
ook	-579
▁det	-580
ys	-581
▁cal	-582
▁def	-583
▁For	-584
oth	-585
chn	-586
wn	-587
▁`	-588
ople	-589
▁person	-590
▁However	-591
ious	-592
stand	-593
ne	-594
ause	-595
▁been	-596
▁off	-597
irst	-598
ential	-599
te	-600
▁AI	-601
▁bec	-602
gg	-603
ware	-604
its	-605
ting	-606
ps	-607
▁follow	-608
ten	-609
▁Ch	-610
----	-611
▁through	-612
▁most	-613
ood	-614
▁while	-615
▁then	-616
▁comple	-617
ices	-618
ib	-619
▁produ	-620
▁sol	-621
()	-622
own	-623
▁information	-624
reat	-625
▁comput	-626
ython	-627
▁techn	-628
ages	-629
▁att	-630
",	-631
▁high	-632
▁people	-633
plic	-634
▁no	-635
ays	-636
▁start	-637
▁ra	-638
▁world	-639
▁require	-640
▁two	-641
▁quest	-642
cept	-643
▁4.	-644
▁To	-645
anc	-646
▁co	-647
▁game	-648
▁list	-649
▁understand	-650
▁mat	-651
▁find	-652
ds	-653
ms	-654
▁}	-655
▁cur	-656
▁[	-657
▁specific	-658
▁che	-659
pport	-660
▁dist	-661
▁lar	-662
erg	-663
▁including	-664
ruct	-665
▁number	-666
▁resp	-667
▁trans	-668
iew	-669
▁language	-670
▁Can	-671
▁consid	-672
ng	-673
▁6	-674
▁adv	-675
▁inf	-676
ues	-677
enc	-678
pect	-679
▁'	-680
ob	-681
▁good	-682
▁av	-683
▁rem	-684
▁power	-685
▁well	-686
▁rep	-687
▁char	-688
//	-689
ife	-690
▁ret	-691
▁first	-692
▁opt	-693
▁ag	-694
▁fl	-695
▁sa	-696
▁ह	-697
ness	-698
ves	-699
hes	-700
▁pol	-701
ized	-702
ality	-703
▁allow	-704
iqu	-705
▁pop	-706
lease	-707
▁file	-708
▁0	-709
ving	-710
▁own	-711
▁Re	-712
▁sk	-713
▁sign	-714
▁poss	-715
▁Ad	-716
rite	-717
▁web	-718
▁rec	-719
arch	-720
▁main	-721
fore	-722
ural	-723
▁just	-724
ered	-725
uring	-726
▁human	-727
ork	-728
),	-729
▁ref	-730
▁sub	-731
▁does	-732
▁As	-733
▁pot	-734
▁were	-735
▁key	-736
▁min	-737
ically	-738
▁perform	-739
▁fact	-740
ake	-741
▁hand	-742
▁exp	-743
▁only	-744
ution	-745
▁build	-746
ved	-747
ian	-748
▁run	-749
▁plan	-750
▁step	-751
▁depend	-752
ety	-753
▁There	-754
ify	-755
▁lo	-756
ines	-757
▁med	-758
▁meth	-759
alth	-760
▁typ	-761
▁design	-762
hen	-763
▁text	-764
▁+	-765
▁ass	-766
▁being	-767
ink	-768
▁fi	-769
cript	-770
▁object	-771
▁provid	-772
nce	-773
▁back	-774
▁impro	-775
▁light	-776
▁soc	-777
read	-778
▁take	-779
▁commun	-780
▁our	-781
▁cor	-782
dition	-783
▁train	-784
);	-785
▁dec	-786
▁try	-787
▁open	-788
gor	-789
▁result	-790
ty	-791
▁see	-792
▁lead	-793
).	-794
eng	-795
▁best	-796
der	-797
▁He	-798
▁const	-799
ade	-800
iron	-801
ron	-802
any	-803
▁long	-804
ited	-805
▁5.	-806
▁fil	-807
▁class	-808
ples	-809
▁small	-810
▁method	-811
▁had	-812
ming	-813
▁gra	-814
ures	-815
oy	-816
▁bel	-817
▁input	-818
▁स	-819
ivid	-820
▁appro	-821
ied	-822
▁br	-823
▁ide	-824
ource	-825
gan	-826
uch	-827
▁let	-828
▁complex	-829
▁gu	-830
▁include	-831
▁20	-832
▁pat	-833
▁down	-834
ef	-835
▁charact	-836
▁Un	-837
▁prev	-838
▁म	-839
▁name	-840
▁eng	-841
▁based	-842
red	-843
▁loc	-844
▁acc	-845
▁support	-846
▁often	-847
▁19	-848
▁her	-849
▁point	-850
ric	-851
▁Pro	-852
▁water	-853
old	-854
▁both	-855
▁aut	-856
▁ext	-857
ody	-858
line	-859
▁conf	-860
gorith	-861
lement	-862
ern	-863
▁These	-864
cul	-865
ily	-866
▁la	-867
kes	-868
▁$	-869
ident	-870
▁life	-871
▁possible	-872
▁stud	-873
▁proper	-874
▁art	-875
ology	-876
▁every	-877
viron	-878
▁year	-879
▁popular	-880
atures	-881
ather	-882
▁They	-883
▁project	-884
▁fin	-885
▁incre	-886
▁algorith	-887
br	-888
sw	-889
up	-890
▁An	-891
▁known	-892
▁7	-893
rent	-894
▁invol	-895
irect	-896
▁applic	-897
self	-898
▁even	-899
ertain	-900
ources	-901
▁effect	-902
nect	-903
▁proble	-904
ton	-905
▁don	-906
▁large	-907
li	-908
fter	-909
▁sur	-910
▁soft	-911
▁term	-912
ization	-913
▁learning	-914
][	-915
▁eas	-916
▁ent	-917
▁user	-918
etter	-919
▁potential	-920
▁8	-921
▁Ex	-922
▁equ	-923
▁ens	-924
▁tool	-925
ism	-926
▁bo	-927
ribut	-928
▁health	-929
ergy	-930
▁few	-931
▁learn	-932
hip	-933
ward	-934
ional	-935
▁return	-936
ars	-937
eg	-938
ets	-939
▁We	-940
▁ins	-941
▁tem	-942
ives	-943
other	-944
▁bl	-945
▁di	-946
▁beh	-947
▁might	-948
▁environ	-949
▁contro	-950
▁tas	-951
▁writ	-952
▁Con	-953
▁Open	-954
▁oper	-955
hem	-956
lic	-957
▁count	-958
▁partic	-959
lu	-960
▁answ	-961
▁better	-962
▁without	-963
ts	-964
):	-965
▁कि	-966
▁mus	-967
▁making	-968
▁par	-969
▁around	-970
▁top	-971
tt	-972
▁10	-973
▁vis	-974
▁right	-975
▁consider	-976
ond	-977
ually	-978
्र	-979
comm	-980
rain	-981
▁real	-982
▁development	-983
▁pur	-984
▁type	-985
ases	-986
▁much	-987
ax	-988
▁feel	-989
▁serv	-990
▁she	-991
▁value	-992
▁el	-993
ocus	-994
▁end	-995
▁mult	-996
ividual	-997
▁energy	-998
या	-999
▁cle	-1000
erest	-1001
▁mem	-1002
▁prot	-1003
iss	-1004
▁made	-1005
▁prom	-1006
**	-1007
▁Python	-1008
▁Sure	-1009
▁give	-1010
▁sever	-1011
oid	-1012
▁here	-1013
▁mean	-1014
▁following	-1015
ability	-1016
▁improve	-1017
▁individual	-1018
hed	-1019
▁Some	-1020
▁redu	-1021
▁software	-1022
arm	-1023
riend	-1024
ational	-1025
▁ve	-1026
▁belie	-1027
▁met	-1028
▁because	-1029
▁i	-1030
▁before	-1031
▁hist	-1032
▁sure	-1033
▁pos	-1034
▁several	-1035
▁systems	-1036
ex	-1037
▁netw	-1038
▁chang	-1039
inu	-1040
▁contain	-1041
▁same	-1042
▁interest	-1043
▁ed	-1044
▁cent	-1045
▁disc	-1046
0,	-1047
ank	-1048
▁**	-1049
ense	-1050
▁hard	-1051
..	-1052
dit	-1053
▁still	-1054
▁common	-1055
▁mon	-1056
▁environment	-1057
▁elect	-1058
▁experience	-1059
▁है	-1060
▁self	-1061
▁connect	-1062
▁bre	-1063
▁state	-1064
▁computer	-1065
ext	-1066
ote	-1067
▁iss	-1068
▁access	-1069
sc	-1070
ique	-1071
▁som	-1072
▁again	-1073
▁command	-1074
ner	-1075
ven	-1076
arth	-1077
itive	-1078
▁great	-1079
ren	-1080
▁De	-1081
atch	-1082
▁cult	-1083
="	-1084
ock	-1085
ately	-1086
▁chall	-1087
▁range	-1088
▁direct	-1089
eld	-1090
uc	-1091
mer	-1092
▁car	-1093
ustom	-1094
▁pass	-1095
▁steps	-1096
▁impact	-1097
ists	-1098
▁blo	-1099
▁happ	-1100
▁keep	-1101
▁questions	-1102
bers	-1103
▁able	-1104
indow	-1105
▁ensure	-1106
ier	-1107
▁explain	-1108
apt	-1109
▁pract	-1110
▁answer	-1111
ins	-1112
▁sum	-1113
▁Al	-1114
▁Is	-1115
ince	-1116
▁struct	-1117
icult	-1118
▁grow	-1119
ries	-1120
▁stre	-1121
▁avail	-1122
▁print	-1123
▁प	-1124
▁sw	-1125
ency	-1126
▁day	-1127
▁lim	-1128
▁write	-1129
."	-1130
ways	-1131
▁current	-1132
imes	-1133
▁programming	-1134
ead	-1135
▁prof	-1136
▁focus	-1137
ave	-1138
▁level	-1139
ills	-1140
▁too	-1141
▁line	-1142
ted	-1143
ames	-1144
▁air	-1145
▁control	-1146
ences	-1147
▁phys	-1148
▁found	-1149
-1	-1150
▁free	-1151
▁product	-1152
▁And	-1153
▁lay	-1154
yle	-1155
▁during	-1156
▁effic	-1157
▁calcul	-1158
air	-1159
iness	-1160
ument	-1161
▁mark	-1162
▁read	-1163
▁difficult	-1164
▁dev	-1165
▁pri	-1166
▁signific	-1167
ior	-1168
▁concept	-1169
ared	-1170
to	-1171
▁must	-1172
▁output	-1173
ec	-1174
err	-1175
inal	-1176
play	-1177
▁very	-1178
▁webs	-1179
ci	-1180
ale	-1181
ray	-1182
▁//	-1183
onse	-1184
cial	-1185
▁needs	-1186
rect	-1187
ggest	-1188
▁organ	-1189
▁custom	-1190
▁Com	-1191
ublic	-1192
▁multi	-1193
day	-1194
▁bas	-1195
▁mach	-1196
▁after	-1197
▁cap	-1198
ething	-1199
til	-1200
▁fam	-1201
conom	-1202
▁amount	-1203
▁factors	-1204
▁performance	-1205
ix	-1206
▁anal	-1207
▁show	-1208
▁those	-1209
ilities	-1210
▁others	-1211
ced	-1212
pro	-1213
view	-1214
thing	-1215
▁personal	-1216
bo	-1217
ention	-1218
▁move	-1219
▁social	-1220
▁bi	-1221
▁suggest	-1222
▁libr	-1223
▁simple	-1224
ined	-1225
▁ris	-1226
▁cell	-1227
aterial	-1228
20	-1229
▁But	-1230
▁determ	-1231
▁various	-1232
not	-1233
nces	-1234
--------	-1235
▁addition	-1236
▁features	-1237
▁available	-1238
("	-1239
▁Do	-1240
▁mess	-1241
ooking	-1242
▁का	-1243
ilar	-1244
▁rese	-1245
▒▒	-1246
ava	-1247
ator	-1248
▁Use	-1249
▁enc	-1250
▁him	-1251
▁food	-1252
▁called	-1253
▁though	-1254
▁character	-1255
▁significant	-1256
▁always	-1257
▁question	-1258
',	-1259
less	-1260
://	-1261
tle	-1262
ee	-1263
yn	-1264
▁vers	-1265
commend	-1266
ug	-1267
▁So	-1268
▁behav	-1269
▁x	-1270
pos	-1271
▁When	-1272
ering	-1273
▁pres	-1274
▁works	-1275
▁things	-1276
▁resources	-1277
▁pattern	-1278
▁examples	-1279
र्	-1280
ash	-1281
▁6.	-1282
▁training	-1283
atic	-1284
▁friend	-1285
▁script	-1286
raph	-1287
▁story	-1288
▁change	-1289
▁Sp	-1290
▁test	-1291
de	-1292
rame	-1293
▁conc	-1294
▁recommend	-1295
▁_	-1296
ross	-1297
▁dem	-1298
▁skills	-1299
▁inc	-1300
▁cause	-1301
▁something	-1302
000	-1303
▁Ar	-1304
▁mov	-1305
▁less	-1306
ables	-1307
▁space	-1308
▁repres	-1309
▁now	-1310
usion	-1311
▁grou	-1312
▁activ	-1313
▁certain	-1314
▁challeng	-1315
▁ways	-1316
▁place	-1317
▁years	-1318
▁understanding	-1319
str	-1320
face	-1321
▁arg	-1322
▁comb	-1323
▁Please	-1324
▁did	-1325
▁care	-1326
ication	-1327
ope	-1328
curity	-1329
▁protect	-1330
▁z	-1331
val	-1332
ling	-1333
raft	-1334
11	-1335
▁unique	-1336
▁9	-1337
ery	-1338
oose	-1339
▁Yes	-1340
▁size	-1341
▁engine	-1342
▁sit	-1343
▁tasks	-1344
▁strong	-1345
▁company	-1346
po	-1347
io	-1348
aster	-1349
▁material	-1350
▁source	-1351
▁wid	-1352
imate	-1353
▁look	-1354
▁meas	-1355
▁dri	-1356
▁history	-1357
▁network	-1358
ral	-1359
▁cr	-1360
▁exist	-1361
▁similar	-1362
ateg	-1363
▁Cre	-1364
▁aff	-1365
uss	-1366
▁lik	-1367
▁econom	-1368
▁general	-1369
▁gre	-1370
▁response	-1371
atform	-1372
▁While	-1373
ull	-1374
orld	-1375
▁tell	-1376
▁another	-1377
▁install	-1378
▁algorithm	-1379
▁/	-1380
uck	-1381
here	-1382
aking	-1383
verse	-1384
▁थ	-1385
ems	-1386
chie	-1387
▁body	-1388
▁uses	-1389
▁tools	-1390
▁changes	-1391
▁correct	-1392
iven	-1393
▁means	-1394
▁hy	-1395
▁ask	-1396
light	-1397
▁mag	-1398
▁stand	-1399
▁until	-1400
▁online	-1401
▁dog	-1402
▁port	-1403
▁ident	-1404
cy	-1405
ember	-1406
▁image	-1407
▁implement	-1408
ape	-1409
oice	-1410
▁pain	-1411
▁influ	-1412
▁invest	-1413
▁public	-1414
▁interact	-1415
▁.	-1416
▁pa	-1417
lish	-1418
▁types	-1419
ination	-1420
▁respons	-1421
uro	-1422
ants	-1423
uture	-1424
▁anim	-1425
▁machine	-1426
und	-1427
▁Sh	-1428
ledge	-1429
▁users	-1430
▁applications	-1431
▁est	-1432
▁content	-1433
▁gr	-1434
ttps	-1435
ision	-1436
▁temper	-1437
▁prevent	-1438
▁dat	-1439
ances	-1440
▁case	-1441
▁vide	-1442
▁short	-1443
js	-1444
ws	-1445
▁\	-1446
ium	-1447
pire	-1448
▁One	-1449
▁war	-1450
▁mind	-1451
1,	-1452
▁saf	-1453
ified	-1454
▁achie	-1455
▁check	-1456
▁please	-1457
▁problem	-1458
▁Q	-1459
▁order	-1460
▁allows	-1461
▁ability	-1462
cle	-1463
gin	-1464
▁Se	-1465
vern	-1466
atural	-1467
▁compon	-1468
▁व	-1469
▁store	-1470
▁technology	-1471
▁cost	-1472
▁necess	-1473
▁platform	-1474
ना	-1475
par	-1476
▁suc	-1477
▁event	-1478
ditionally	-1479
▁contin	-1480
▁website	-1481
way	-1482
▁Over	-1483
▁speed	-1484
▁study	-1485
▁particular	-1486
▁Ne	-1487
ital	-1488
co	-1489
add	-1490
ger	-1491
▁note	-1492
▁rele	-1493
▁become	-1494
▁server	-1495
▁By	-1496
▁view	-1497
▁behavior	-1498
▁low	-1499
▁creating	-1500
omet	-1501
▁bus	-1502
▁fur	-1503
ellig	-1504
▁mathem	-1505
▁relations	-1506
oph	-1507
▁Pl	-1508
▁sing	-1509
▁contribut	-1510
▁considered	-1511
▁why	-1512
ें	-1513
▁child	-1514
▁weight	-1515
▁structure	-1516
for	-1517
inux	-1518
▁ben	-1519
▁ele	-1520
▁Earth	-1521
▁models	-1522
".	-1523
aces	-1524
crib	-1525
▁area	-1526
▁music	-1527
▁polit	-1528
ार	-1529
▁ज	-1530
▁del	-1531
▁integ	-1532
▁intern	-1533
▁numbers	-1534
██	-1535
ats	-1536
vert	-1537
anced	-1538
▁block	-1539
▁research	-1540
▁services	-1541
▁knowledge	-1542
▁Additionally	-1543
))	-1544
name	-1545
▁quick	-1546
▁experi	-1547
load	-1548
utes	-1549
ories	-1550
pre	-1551
▁Be	-1552
ason	-1553
▁किस	-1554
▁reduce	-1555
▁request	-1556
▁provides	-1557
▁Sc	-1558
ring	-1559
rodu	-1560
arget	-1561
▁Create	-1562
▁maintain	-1563
cho	-1564
els	-1565
ots	-1566
▁Go	-1567
▁orig	-1568
▁pref	-1569
▁values	-1570
▁My	-1571
▁US	-1572
▁terms	-1573
▁variety	-1574
▁security	-1575
▁yourself	-1576
▁team	-1577
▁think	-1578
▁scient	-1579
▁within	-1580
▁relationship	-1581
</	-1582
rag	-1583
dict	-1584
▁field	-1585
ox	-1586
ken	-1587
▁optim	-1588
▁likely	-1589
▁profess	-1590
St	-1591
sh	-1592
▁oc	-1593
▁err	-1594
▁fre	-1595
▁say	-1596
▁sun	-1597
▁caus	-1598
ulation	-1599
▁future	-1600
alk	-1601
por	-1602
▁log	-1603
meric	-1604
▁soci	-1605
▁search	-1606
2,	-1607
PT	-1608
▁due	-1609
▁library	-1610
▁someone	-1611
ogn	-1612
▁es	-1613
▁ess	-1614
▁idea	-1615
▁pack	-1616
▁clear	-1617
▁issues	-1618
▁represent	-1619
PI	-1620
▁:	-1621
port	-1622
▁squ	-1623
▁tri	-1624
▁X	-1625
▁7.	-1626
word	-1627
itor	-1628
▁side	-1629
▁avoid	-1630
▁market	-1631
▁multiple	-1632
ze	-1633
xim	-1634
▁With	-1635
▁else	-1636
▁song	-1637
▁three	-1638
▁strateg	-1639
ww	-1640
▁की	-1641
ption	-1642
idence	-1643
▁Americ	-1644
▁writing	-1645
AI	-1646
pri	-1647
cing	-1648
▁doc	-1649
▁mot	-1650
▁Java	-1651
▁cour	-1652
▁color	-1653
▁theory	-1654
▁meaning	-1655
▁regular	-1656
▁designed	-1657
▁अ	-1658
amp	-1659
ctor	-1660
▁appe	-1661
▁indust	-1662
▁powerful	-1663
aut	-1664
▁ge	-1665
▁Eng	-1666
iting	-1667
▁goals	-1668
▁govern	-1669
▁non	-1670
▁land	-1671
▁role	-1672
▁words	-1673
ditions	-1674
▁Z	-1675
ury	-1676
▁leg	-1677
▁mil	-1678
py	-1679
▁No	-1680
ails	-1681
▁bat	-1682
▁vol	-1683
ively	-1684
▁head	-1685
▁since	-1686
▁humans	-1687
▁depending	-1688
ml	-1689
ploy	-1690
▁uni	-1691
▁That	-1692
▁summ	-1693
▁turn	-1694
10	-1695
▁style	-1696
▁natural	-1697
▁En	-1698
▁dig	-1699
▁sent	-1700
▁word	-1701
▁against	-1702
▁version	-1703
▁anything	-1704
pr	-1705
app	-1706
ume	-1707
▁takes	-1708
▁cannot	-1709
ene	-1710
hor	-1711
ute	-1712
fort	-1713
ooks	-1714
iving	-1715
▁press	-1716
▁success	-1717
▁building	-1718
▁community	-1719
19	-1720
umn	-1721
▁gl	-1722
chan	-1723
date	-1724
vant	-1725
▁mass	-1726
▁rest	-1727
▁secon	-1728
▁manage	-1729
▁working	-1730
▁][	-1731
come	-1732
▁Make	-1733
▁target	-1734
irt	-1735
ilos	-1736
▁mor	-1737
ctions	-1738
▁sound	-1739
▁super	-1740
▁context	-1741
▁message	-1742
erc	-1743
▁Im	-1744
vent	-1745
▁necessary	-1746
orn	-1747
▁mo	-1748
back	-1749
ological	-1750
▁describ	-1751
▁problems	-1752
▁र	-1753
ffic	-1754
ouse	-1755
place	-1756
raw	-1757
▁Let	-1758
▁cir	-1759
▁deep	-1760
ression	-1761
▁United	-1762
▁quality	-1763
▁dr	-1764
▁minutes	-1765
▁physical	-1766
idd	-1767
▁ear	-1768
▁lit	-1769
▁Linux	-1770
▁affect	-1771
▁business	-1772
QL	-1773
▁On	-1774
▁के	-1775
▁में	-1776
izing	-1777
▁past	-1778
▁frame	-1779
▁makes	-1780
▁address	-1781
▁special	-1782
्या	-1783
▁Em	-1784
▁benef	-1785
▁local	-1786
▁points	-1787
▁options	-1788
▁approach	-1789
ule	-1790
▁Des	-1791
▁times	-1792
▁single	-1793
▁created	-1794
▁instead	-1795
▁efficient	-1796
▁algorithms	-1797
ान	-1798
ently	-1799
gether	-1800
▁involves	-1801
▁together	-1802
('	-1803
▁•	-1804
acy	-1805
ert	-1806
▁sal	-1807
▁basic	-1808
▁given	-1809
▁enough	-1810
▁additional	-1811
▁jo	-1812
▁Fin	-1813
▁priv	-1814
▁risk	-1815
▁mathemat	-1816
▁characters	-1817
▁tre	-1818
▁further	-1819
▁intellig	-1820
##	-1821
path	-1822
asing	-1823
▁quant	-1824
olution	-1825
▁remain	-1826
▁travel	-1827
▁languages	-1828
be	-1829
oot	-1830
ches	-1831
leep	-1832
▁Inst	-1833
▁ideas	-1834
▁objects	-1835
==	-1836
▁pie	-1837
ental	-1838
iques	-1839
▁next	-1840
illion	-1841
▁</	-1842
▁rad	-1843
▁Cl	-1844
ngth	-1845
▁bro	-1846
based	-1847
▁prin	-1848
▁typically	-1849
pose	-1850
▁ant	-1851
lying	-1852
▁areas	-1853
▁sense	-1854
▁attack	-1855
▁distance	-1856
ips	-1857
▁ey	-1858
iled	-1859
▁love	-1860
▁Could	-1861
▁files	-1862
▁looking	-1863
ener	-1864
▁API	-1865
▁old	-1866
▁base	-1867
▁come	-1868
▁helps	-1869
▁“	-1870
ides	-1871
nter	-1872
▁hig	-1873
▁sym	-1874
▁call	-1875
▁players	-1876
^2	-1877
ties	-1878
ording	-1879
▁having	-1880
▁methods	-1881
ane	-1882
▁imm	-1883
▁job	-1884
urope	-1885
▁Once	-1886
▁fore	-1887
▁Thank	-1888
PU	-1889
ream	-1890
istic	-1891
ancial	-1892
▁memory	-1893
▁elements	-1894
▁increase	-1895
▁techniques	-1896
▁individuals	-1897
yr	-1898
The	-1899
bal	-1900
oci	-1901
tml	-1902
ived	-1903
▁bal	-1904
▁dep	-1905
▁group	-1906
▁>	-1907
ube	-1908
▁egg	-1909
▁home	-1910
▁hope	-1911
▁autom	-1912
▁cy	-1913
abor	-1914
board	-1915
cious	-1916
▁city	-1917
erence	-1918
▁needed	-1919
▁achieve	-1920
▁conditions	-1921
5,	-1922
amet	-1923
icro	-1924
craft	-1925
▁crit	-1926
▁rece	-1927
▁situ	-1928
▁Write	-1929
▁cells	-1930
▁philos	-1931
time	-1932
▁Rem	-1933
▁determine	-1934
▁temperature	-1935
▁Jo	-1936
▁cou	-1937
▁neg	-1938
▁loop	-1939
")	-1940
▁12	-1941
ired	-1942
aries	-1943
▁harm	-1944
ibility	-1945
▁series	-1946
▁subject	-1947
▁previous	-1948
▁application	-1949
ilt	-1950
joy	-1951
key	-1952
head	-1953
ules	-1954
▁adj	-1955
ivity	-1956
▁video	-1957
▁assist	-1958
▁service	-1959
▁countries	-1960
by	-1961
ird	-1962
▁cop	-1963
▁true	-1964
▁wide	-1965
▁World	-1966
▁media	-1967
▁track	-1968
▁choice	-1969
▁modern	-1970
▁prompt	-1971
▁Overall	-1972
▁generate	-1973
ott	-1974
rypt	-1975
▁Add	-1976
▁last	-1977
▁scre	-1978
▁choose	-1979
▁mechan	-1980
▁political	-1981
ann	-1982
▁She	-1983
ength	-1984
▁fall	-1985
▁fast	-1986
▁never	-1987
▁valid	-1988
ysis	-1989
▁card	-1990
▁today	-1991
▁action	-1992
▁display	-1993
▁functions	-1994
ney	-1995
ush	-1996
orks	-1997
▁left	-1998
aging	-1999
▁easy	-2000
▁defin	-2001
▁economic	-2002
▁position	-2003
sequ	-2004
▁gain	-2005
▁kind	-2006
▁predict	-2007
▁results	-2008
ML	-2009
ON	-2010
ites	-2011
▁exc	-2012
verage	-2013
▁accur	-2014
▁begin	-2015
ditional	-2016
▁evidence	-2017
::	-2018
OS	-2019
▁&	-2020
▁द	-2021
ample	-2022
andom	-2023
chool	-2024
▁emot	-2025
▁occur	-2026
▁quickly	-2027
],	-2028
▁Ph	-2029
▁था	-2030
ello	-2031
▁Che	-2032
▁Int	-2033
▁dam	-2034
▁Cons	-2035
▁sets	-2036
▁vary	-2037
▁includes	-2038
▁patterns	-2039
let	-2040
avor	-2041
ises	-2042
oney	-2043
ients	-2044
wards	-2045
▁string	-2046
:**	-2047
oms	-2048
▁Set	-2049
ystem	-2050
pecial	-2051
ration	-2052
▁brain	-2053
▁table	-2054
▁consum	-2055
▁events	-2056
▁family	-2057
▁account	-2058
▁explore	-2059
▁projects	-2060
++	-2061
...	-2062
▁et	-2063
ours	-2064
▁Are	-2065
▁div	-2066
▁away	-2067
▁flow	-2068
▁Europe	-2069
▁running	-2070
▁whether	-2071
▁financial	-2072
au	-2073
land	-2074
▁rob	-2075
▁exerc	-2076
▁offer	-2077
erences	-2078
▁effort	-2079
▁challenges	-2080
3,	-2081
the	-2082
▁init	-2083
▁above	-2084
▁clean	-2085
▁society	-2086
▁HT	-2087
work	-2088
▁glo	-2089
▁coll	-2090
▁fish	-2091
▁norm	-2092
▁path	-2093
▁sens	-2094
indows	-2095
priate	-2096
▁standard	-2097
iod	-2098
▁Ac	-2099
anks	-2100
▁aud	-2101
aring	-2102
ished	-2103
isions	-2104
script	-2105
▁paper	-2106
▁altern	-2107
▁easier	-2108
▁18	-2109
▁sl	-2110
▁Dis	-2111
▁eth	-2112
▁force	-2113
▁graph	-2114
▁States	-2115
▁second	-2116
▁present	-2117
▁professional	-2118
":	-2119
▁ग	-2120
▁age	-2121
ulate	-2122
▁share	-2123
▁sleep	-2124
ने	-2125
▁brow	-2126
▁games	-2127
▁trying	-2128
▁materials	-2129
▁requirements	-2130
__	-2131
une	-2132
aves	-2133
roid	-2134
▁done	-2135
▁exec	-2136
▁said	-2137
▁document	-2138
">	-2139
ym	-2140
िक	-2141
▁deb	-2142
iency	-2143
▁convers	-2144
▁country	-2145
▁friends	-2146
of	-2147
amed	-2148
▁mar	-2149
▁capt	-2150
▁root	-2151
▁task	-2152
▁advant	-2153
▁matter	-2154
▁nature	-2155
we	-2156
izes	-2157
▁highly	-2158
▁player	-2159
▁taking	-2160
▁depends	-2161
▁progress	-2162
▁requires	-2163
1.	-2164
▁far	-2165
arent	-2166
▁Chat	-2167
▁Germ	-2168
▁array	-2169
▁measure	-2170
▁science	-2171
▁provided	-2172
▁intelligence	-2173
ont	-2174
ogle	-2175
oman	-2176
over	-2177
▁minim	-2178
▁option	-2179
▁school	-2180
ters	-2181
▁Why	-2182
▁blue	-2183
▁rather	-2184
▁production	-2185
lex	-2186
rop	-2187
text	-2188
irtual	-2189
ologies	-2190
▁associ	-2191
▁growth	-2192
▁components	-2193
ynam	-2194
▁202	-2195
Script	-2196
▁black	-2197
▁going	-2198
▁limit	-2199
▁obser	-2200
▁solar	-2201
▁sources	-2202
oes	-2203
set	-2204
▁0.	-2205
▁==	-2206
▁Ke	-2207
elds	-2208
etic	-2209
▁Res	-2210
▁fit	-2211
▁pow	-2212
erson	-2213
▁book	-2214
▁क्या	-2215
ection	-2216
▁analy	-2217
▁layer	-2218
▁column	-2219
▁compet	-2220
▁higher	-2221
▁regard	-2222
▁strength	-2223
▁essential	-2224
,"	-2225
▁भ	-2226
jor	-2227
data	-2228
ised	-2229
side	-2230
▁feed	-2231
▁stay	-2232
▁https	-2233
▁shape	-2234
▁format	-2235
▁recogn	-2236
▁useful	-2237
ma	-2238
use	-2239
html	-2240
▁200	-2241
▁fig	-2242
itions	-2243
ograph	-2244
uments	-2245
pportun	-2246
▁adjust	-2247
▁happen	-2248
▁period	-2249
▁respect	-2250
▁American	-2251
▁especial	-2252
ik	-2253
man	-2254
osed	-2255
▁opp	-2256
ators	-2257
▁enjoy	-2258
▁least	-2259
▁concepts	-2260
/2	-2261
░░	-2262
▁Tr	-2263
▁put	-2264
▁dark	-2265
lection	-2266
▁devices	-2267
▁especially	-2268
▁government	-2269
▁appropriate	-2270
sel	-2271
empt	-2272
iment	-2273
▁Expl	-2274
▁concern	-2275
▁helpful	-2276
▁identify	-2277
ids	-2278
▁flo	-2279
ither	-2280
▁post	-2281
▁supp	-2282
▁course	-2283
▁levels	-2284
▁Finally	-2285
▁element	-2286
▁advanced	-2287
▁location	-2288
▁relevant	-2289
▁required	-2290
▁properties	-2291
▁scientific	-2292
0.	-2293
ask	-2294
ump	-2295
▁Bl	-2296
▁lot	-2297
icate	-2298
▁days	-2299
▁reach	-2300
▁continue	-2301
▁difference	-2302
▁traditional	-2303
्व	-2304
GPT	-2305
ift	-2306
rad	-2307
anger	-2308
▁rout	-2309
alking	-2310
▁along	-2311
atively	-2312
imately	-2313
▁states	-2314
▁constant	-2315
▁practice	-2316
new	-2317
oud	-2318
ula	-2319
like	-2320
cient	-2321
▁prim	-2322
▁heart	-2323
▁expect	-2324
▁reason	-2325
▁review	-2326
▁overall	-2327
▁starting	-2328
▁philosoph	-2329
▁differences	-2330
न्	-2331
dom	-2332
akes	-2333
▁Ser	-2334
▁fac	-2335
▁law	-2336
▁ball	-2337
▁slow	-2338
python	-2339
utions	-2340
▁items	-2341
▁believe	-2342
▁conscious	-2343
ese	-2344
sol	-2345
List	-2346
rast	-2347
▁Mar	-2348
▁ste	-2349
inking	-2350
▁princi	-2351
▁widely	-2352
▁cultural	-2353
▁positive	-2354
▁communication	-2355
hn	-2356
yg	-2357
col	-2358
list	-2359
roll	-2360
▁Col	-2361
▁lab	-2362
▁pay	-2363
▁inde	-2364
▁frequ	-2365
▁solve	-2366
▁belief	-2367
▁button	-2368
▁compan	-2369
▁ground	-2370
▁planet	-2371
▁getting	-2372
▁introdu	-2373
▁medical	-2374
▁summary	-2375
▁interpre	-2376
▁experiences	-2377
racy	-2378
▁bit	-2379
ready	-2380
▁Your	-2381
▁face	-2382
▁ones	-2383
ground	-2384
▁python	-2385
▁quantum	-2386
abilities	-2387
▁operating	-2388
▁efficiency	-2389
')	-2390
ित	-2391
▁ब	-2392
aps	-2393
▁Us	-2394
▁ut	-2395
▁New	-2396
▁Now	-2397
▁ang	-2398
oring	-2399
utton	-2400
▁react	-2401
▁across	-2402
▁leading	-2403
▁started	-2404
▁trained	-2405
▁usually	-2406
▁universe	-2407
AM	-2408
स्	-2409
▁load	-2410
▁sort	-2411
▁break	-2412
▁white	-2413
clusion	-2414
▁employ	-2415
ulations	-2416
▁produce	-2417
▁property	-2418
go	-2419
▁15	-2420
▁once	-2421
▁phot	-2422
▁rate	-2423
ension	-2424
▁datab	-2425
▁offers	-2426
▁comfort	-2427
▁effects	-2428
▁opportun	-2429
ili	-2430
ault	-2431
ones	-2432
▁cat	-2433
▁doing	-2434
▁estab	-2435
▁issue	-2436
▁separ	-2437
▁young	-2438
izations	-2439
▁related	-2440
▁smaller	-2441
▁surface	-2442
▁processes	-2443
4,	-2444
▁ल	-2445
▁Qu	-2446
▁big	-2447
▁pan	-2448
▁Cont	-2449
▁dest	-2450
▁goal	-2451
▁page	-2452
▁comes	-2453
▁major	-2454
▁Google	-2455
▁config	-2456
▁window	-2457
▁involve	-2458
▁thought	-2459
▁analysis	-2460
▁developed	-2461
18	-2462
het	-2463
▁8.	-2464
fact	-2465
itch	-2466
▁bar	-2467
▁oil	-2468
orial	-2469
▁rock	-2470
▁stat	-2471
▁stop	-2472
ensive	-2473
▁email	-2474
▁exact	-2475
▁little	-2476
▁consequ	-2477
▁written	-2478
▁attention	-2479
▁developers	-2480
ER	-2481
mit	-2482
gest	-2483
itud	-2484
lict	-2485
▁buy	-2486
▁roll	-2487
▁error	-2488
▁damage	-2489
▁random	-2490
▁square	-2491
icy	-2492
base	-2493
ival	-2494
▁heav	-2495
▁sequ	-2496
▁match	-2497
▁night	-2498
▁already	-2499
▁animals	-2500
▁continu	-2501
▁purpose	-2502
▁JavaScript	-2503
▁processing	-2504
12	-2505
sy	-2506
ining	-2507
inter	-2508
▁meet	-2509
▁attempt	-2510
▁effective	-2511
▁influence	-2512
▁providing	-2513
unt	-2514
▁At	-2515
duct	-2516
ffee	-2517
aming	-2518
plies	-2519
▁full	-2520
▁prob	-2521
▁adapt	-2522
▁money	-2523
▁spell	-2524
ificial	-2525
▁length	-2526
▁original	-2527
▁transform	-2528
्य	-2529
ply	-2530
▁vi	-2531
▁HTML	-2532
▁loss	-2533
▁tips	-2534
▁parts	-2535
▁fields	-2536
▁neural	-2537
▁discuss	-2538
▁allowing	-2539
▁hardware	-2540
▁industry	-2541
▁perspect	-2542
orry	-2543
aches	-2544
▁prec	-2545
selves	-2546
▁cross	-2547
▁appear	-2548
▁actions	-2549
▁solution	-2550
▁variable	-2551
ah	-2552
▓▓	-2553
ows	-2554
▁16	-2555
down	-2556
file	-2557
ints	-2558
ront	-2559
▁fix	-2560
ailed	-2561
▁suit	-2562
▁lower	-2563
▁named	-2564
▁express	-2565
aly	-2566
ison	-2567
orth	-2568
part	-2569
▁near	-2570
▁rules	-2571
▁became	-2572
▁detect	-2573
▁transl	-2574
▁climate	-2575
▁decisions	-2576
▁directory	-2577
ID	-2578
sv	-2579
ung	-2580
fect	-2581
▁red	-2582
▁upd	-2583
aling	-2584
enced	-2585
▁Note	-2586
▁chem	-2587
▁dise	-2588
▁grav	-2589
▁miss	-2590
▁After	-2591
▁hours	-2592
▁incor	-2593
▁prior	-2594
▁handle	-2595
▁benefits	-2596
▁throughout	-2597
00,	-2598
ler	-2599
rie	-2600
pper	-2601
▁ful	-2602
tings	-2603
▁live	-2604
▁send	-2605
▁select	-2606
▁average	-2607
▁consist	-2608
▁activities	-2609
3.	-2610
iet	-2611
mon	-2612
nov	-2613
▁हु	-2614
cles	-2615
itle	-2616
ocol	-2617
fully	-2618
▁Keep	-2619
▁fund	-2620
▁guid	-2621
▁jour	-2622
▁among	-2623
▁close	-2624
▁encou	-2625
▁center	-2626
▁ChatGPT	-2627
▁Remember	-2628
▁challenging	-2629
me	-2630
▁id	-2631
arily	-2632
▁date	-2633
▁becom	-2634
▁built	-2635
▁cases	-2636
▁global	-2637
In	-2638
aw	-2639
bs	-2640
lt	-2641
na	-2642
();	-2643
bit	-2644
resh	-2645
▁dou	-2646
▁sat	-2647
▁sec	-2648
iddle	-2649
▁arch	-2650
▁circ	-2651
▁cool	-2652
source	-2653
▁faster	-2654
▁products	-2655
num	-2656
▁El	-2657
miss	-2658
▁flu	-2659
▁Rust	-2660
▁aware	-2661
▁lives	-2662
▁month	-2663
▁images	-2664
▁itself	-2665
▁associated	-2666
▁management	-2667
▁particularly	-2668
ek	-2669
bol	-2670
ror	-2671
apan	-2672
ield	-2673
ster	-2674
▁dom	-2675
▁ill	-2676
▁lat	-2677
▁ver	-2678
▁Then	-2679
▁Develop	-2680
▁ancient	-2681
▁package	-2682
RL	-2683
do	-2684
▁Le	-2685
▁Man	-2686
force	-2687
▁core	-2688
▁educ	-2689
▁Check	-2690
▁batter	-2691
▁really	-2692
▁screen	-2693
▁English	-2694
▁contains	-2695
▁internet	-2696
ipp	-2697
▁Su	-2698
▁रा	-2699
anch	-2700
ider	-2701
▁Cal	-2702
▁lif	-2703
▁tim	-2704
astic	-2705
igate	-2706
▁decl	-2707
▁seen	-2708
▁happy	-2709
itation	-2710
▁entire	-2711
▁inside	-2712
▁spread	-2713
▁collect	-2714
▁weather	-2715
▁assistant	-2716
▁computing	-2717
▁relationships	-2718
IN	-2719
zz	-2720
▁Or	-2721
rong	-2722
ured	-2723
▁fru	-2724
asons	-2725
▁imag	-2726
▁surv	-2727
▁wood	-2728
▁earth	-2729
▁culture	-2730
▁details	-2731
▁initial	-2732
▁generally	-2733
bon	-2734
odes	-2735
omen	-2736
itary	-2737
eration	-2738
▁either	-2739
▁normal	-2740
ribution	-2741
▁balance	-2742
▁paramet	-2743
▁accurate	-2744
▁describe	-2745
▁electric	-2746
AR	-2747
ipe	-2748
oss	-2749
uce	-2750
▁30	-2751
▁op	-2752
▁sn	-2753
▁Ind	-2754
https	-2755
▁bring	-2756
▁fight	-2757
▁purch	-2758
▁aspect	-2759
▁digital	-2760
▁conflict	-2761
▁directly	-2762
dir	-2763
▁Bu	-2764
▁np	-2765
iles	-2766
▁App	-2767
▁deg	-2768
▁mix	-2769
aving	-2770
▁stru	-2771
▁doesn	-2772
▁century	-2773
▁activity	-2774
▁9.	-2775
▁Pr	-2776
outh	-2777
▁Red	-2778
▁won	-2779
▁scen	-2780
▁upon	-2781
ensions	-2782
▁simply	-2783
cription	-2784
▁playing	-2785
AT	-2786
alu	-2787
rage	-2788
soft	-2789
▁Reg	-2790
▁etc	-2791
▁hol	-2792
▁lic	-2793
▁nav	-2794
▁smo	-2795
osing	-2796
▁tast	-2797
▁Start	-2798
▁dynam	-2799
▁motiv	-2800
▁treat	-2801
▁groups	-2802
▁larger	-2803
▁secure	-2804
▁virtual	-2805
▁equation	-2806
▁companies	-2807
▁operations	-2808
▁interesting	-2809
2.	-2810
ius	-2811
inary	-2812
▁Brit	-2813
▁fire	-2814
▁heat	-2815
▁safe	-2816
▁shap	-2817
▁Micro	-2818
▁maxim	-2819
▁topic	-2820
▁coffee	-2821
▁danger	-2822
▁threat	-2823
▁visual	-2824
volution	-2825
▁compared	-2826
▁decision	-2827
▁programs	-2828
ता	-2829
ges	-2830
rap	-2831
body	-2832
care	-2833
▁(20	-2834
▁War	-2835
▁hot	-2836
▁hyd	-2837
▁led	-2838
icial	-2839
itude	-2840
▁drive	-2841
▁lines	-2842
quality	-2843
versity	-2844
▁height	-2845
▁longer	-2846
▁beliefs	-2847
ification	-2848
▁involved	-2849
▁properly	-2850
▁abilities	-2851
▁calculate	-2852
▁themselves	-2853
ST	-2854
son	-2855
ager	-2856
▁God	-2857
inder	-2858
istics	-2859
▁Japan	-2860
▁Using	-2861
▁OpenAI	-2862
▁active	-2863
▁behind	-2864
▁specif	-2865
▁download	-2866
▁independ	-2867
.,	-2868
era	-2869
▁=>	-2870
▁cut	-2871
▁ded	-2872
▁inj	-2873
▁Each	-2874
▁bott	-2875
▁cast	-2876
▁room	-2877
▁board	-2878
▁author	-2879
▁histor	-2880
▁healthy	-2881
▁species	-2882
▁argument	-2883
▁feedback	-2884
▁practices	-2885
▁preferences	-2886
']	-2887
25	-2888
fit	-2889
ype	-2890
▁--	-2891
ding	-2892
ians	-2893
resp	-2894
▁100	-2895
▁Web	-2896
asses	-2897
▁padd	-2898
▁blood	-2899
▁final	-2900
▁later	-2901
▁device	-2902
▁letter	-2903
▁living	-2904
▁Windows	-2905
▁mathematical	-2906
bl	-2907
ls	-2908
▁?	-2909
ait	-2910
bra	-2911
www	-2912
▁Li	-2913
sole	-2914
▁Get	-2915
▁der	-2916
▁nut	-2917
▁tot	-2918
itect	-2919
▁chick	-2920
▁demon	-2921
▁simpl	-2922
▁colors	-2923
▁explan	-2924
▁reflect	-2925
▁children	-2926
▁complete	-2927
▁component	-2928
▁situation	-2929
▁variables	-2930
▁consequences	-2931
my	-2932
oad	-2933
war	-2934
pare	-2935
clude	-2936
ister	-2937
▁John	-2938
▁draw	-2939
ometry	-2940
▁early	-2941
▁connection	-2942
▁everything	-2943
['	-2944
rid	-2945
rupt	-2946
▁Acc	-2947
▁May	-2948
▁ing	-2949
▁kil	-2950
▁कित	-2951
▁eggs	-2952
▁weak	-2953
▁Roman	-2954
▁price	-2955
▁trust	-2956
▁desired	-2957
▁negative	-2958
▁complexity	-2959
▁alternative	-2960
ny	-2961
ably	-2962
aced	-2963
hent	-2964
▁Per	-2965
▁SQL	-2966
▁Ult	-2967
▒▒▒▒	-2968
plied	-2969
▁Prov	-2970
▁cook	-2971
▁eyes	-2972
▁host	-2973
▁catch	-2974
▁house	-2975
▁piece	-2976
▁veget	-2977
ception	-2978
▁perfect	-2979
▁customer	-2980
▁database	-2981
▁architect	-2982
▁platforms	-2983
▁distribution	-2984
Ch	-2985
arc	-2986
att	-2987
▁2,	-2988
▁ur	-2989
▁ना	-2990
ands	-2991
ners	-2992
pite	-2993
▁vul	-2994
▁hold	-2995
▁synt	-2996
▁evalu	-2997
▁legal	-2998
▁plant	-2999
▁plants	-3000
▁safety	-3001
▁towards	-3002
▁framework	-3003
▁interface	-3004
▁responses	-3005
▁background	-3006
6,	-3007
AN	-3008
100	-3009
aim	-3010
alf	-3011
ups	-3012
Name	-3013
▁hor	-3014
idity	-3015
▁tree	-3016
▁infin	-3017
uration	-3018
▁medium	-3019
▁limited	-3020
▁million	-3021
▁actually	-3022
----------------	-3023
SC	-3024
ees	-3025
▁+=	-3026
▁CS	-3027
▁स्	-3028
cent	-3029
eria	-3030
ored	-3031
▁mel	-3032
▁ever	-3033
▁fine	-3034
▁books	-3035
▁datas	-3036
▁everyone	-3037
▁potentially	-3038
ok	-3039
▁श	-3040
amb	-3041
hers	-3042
inct	-3043
term	-3044
▁(19	-3045
▁Pre	-3046
ening	-3047
▁Gree	-3048
▁guit	-3049
▁node	-3050
elling	-3051
▁innov	-3052
▁spend	-3053
▁easily	-3054
▁creates	-3055
▁follows	-3056
▁respond	-3057
▁Microsoft	-3058
▁condition	-3059
▁principles	-3060
AD	-3061
HT	-3062
asy	-3063
ball	-3064
yond	-3065
▁Def	-3066
▁Mon	-3067
▁Try	-3068
▁bad	-3069
▁civ	-3070
oding	-3071
plate	-3072
▁laws	-3073
▁total	-3074
▁report	-3075
▁privacy	-3076
▁military	-3077
▁remember	-3078
▁currently	-3079
▁experiment	-3080
▁consciousness	-3081
-3	-3082
AL	-3083
irm	-3084
▁bed	-3085
ended	-3086
▁Since	-3087
▁worth	-3088
istance	-3089
▁advice	-3090
▁Another	-3091
▁monitor	-3092
▁commonly	-3093
▁sequence	-3094
▁developing	-3095
**:	-3096
aur	-3097
ina	-3098
izz	-3099
▁25	-3100
value	-3101
▁Name	-3102
▁evol	-3103
▁item	-3104
▁spir	-3105
friend	-3106
▁apply	-3107
▁forms	-3108
▁sorry	-3109
▁thing	-3110
▁watch	-3111
▁parent	-3112
▁remove	-3113
▁replace	-3114
▁returns	-3115
▁electron	-3116
▁exercise	-3117
▁networks	-3118
▁students	-3119
▁distribut	-3120
▁recommended	-3121
IT	-3122
az	-3123
हा	-3124
bed	-3125
fer	-3126
ien	-3127
mat	-3128
▁Me	-3129
▁cup	-3130
▁sus	-3131
████	-3132
▁chat	-3133
▁viol	-3134
▁scene	-3135
▁commit	-3136
▁pressure	-3137
▁conversation	-3138
▁technologies	-3139
LE	-3140
af	-3141
top	-3142
uth	-3143
alse	-3144
augh	-3145
▁aim	-3146
ached	-3147
world	-3148
▁king	-3149
▁lack	-3150
▁ment	-3151
▁manip	-3152
▁names	-3153
▁modify	-3154
▁played	-3155
redients	-3156
▁chicken	-3157
▁communities	-3158
dd	-3159
gar	-3160
▁Fr	-3161
▁Ge	-3162
ache	-3163
▁10.	-3164
▁box	-3165
▁psy	-3166
chain	-3167
▁link	-3168
▁mole	-3169
▁equal	-3170
▁subst	-3171
▁expand	-3172
ructions	-3173
▁Certain	-3174
▁greater	-3175
▁detailed	-3176
▁incorpor	-3177
▁measures	-3178
▁creatures	-3179
▁Ultimately	-3180
▁conclusion	-3181
▁strategies	-3182
ky	-3183
▁न	-3184
uel	-3185
ucle	-3186
▁dim	-3187
ement	-3188
rated	-3189
▁Mark	-3190
▁gold	-3191
▁rule	-3192
button	-3193
lished	-3194
▁First	-3195
▁Which	-3196
▁beaut	-3197
▁Thanks	-3198
▁refers	-3199
▁vulner	-3200
fficient	-3201
▁ethical	-3202
▁concerns	-3203
▁suggestions	-3204
='	-3205
ai	-3206
aff	-3207
log	-3208
enge	-3209
oved	-3210
wise	-3211
▁abs	-3212
▁bud	-3213
▁ter	-3214
▁प्र	-3215
orage	-3216
▁From	-3217
▁Many	-3218
▁Russ	-3219
▁four	-3220
ensity	-3221
iation	-3222
icious	-3223
▁click	-3224
▁scale	-3225
▁advent	-3226
▁double	-3227
▁region	-3228
▁outside	-3229
▁artificial	-3230
▁healthcare	-3231
▁structures	-3232
15	-3233
tr	-3234
org	-3235
▁Ap	-3236
▁Av	-3237
▁mi	-3238
▁को	-3239
▁GPU	-3240
▁bir	-3241
▁cam	-3242
▁hab	-3243
▁rot	-3244
▁ult	-3245
▁vac	-3246
▁yet	-3247
ising	-3248
▁Data	-3249
▁shad	-3250
estern	-3251
object	-3252
ustain	-3253
▁green	-3254
▁prote	-3255
▁teach	-3256
▁accept	-3257
▁define	-3258
▁authent	-3259
▁journey	-3260
▁mention	-3261
▁reasons	-3262
▁increasing	-3263
▁interested	-3264
2)	-3265
60	-3266
osp	-3267
▁Fe	-3268
▁Sw	-3269
emic	-3270
host	-3271
iate	-3272
isms	-3273
size	-3274
▁Ass	-3275
▁Git	-3276
▁mac	-3277
▁mis	-3278
▁tur	-3279
▁List	-3280
▁seem	-3281
overed	-3282
▁taken	-3283
▁guitar	-3284
▁stress	-3285
▁however	-3286
▁located	-3287
▁private	-3288
▁chemical	-3289
▁graphics	-3290
▁keyboard	-3291
▁movement	-3292
▁requests	-3293
▁surround	-3294
▁terminal	-3295
▁reference	-3296
▁organization	-3297
US	-3298
िल	-3299
leg	-3300
ole	-3301
▁Tw	-3302
▁Sim	-3303
▁mer	-3304
▁row	-3305
Hello	-3306
anish	-3307
right	-3308
▁fict	-3309
▁flex	-3310
▁mist	-3311
▁reli	-3312
illing	-3313
ipment	-3314
yright	-3315
▁favor	-3316
▁whole	-3317
▁beyond	-3318
▁linear	-3319
irection	-3320
▁Explain	-3321
▁feature	-3322
▁setting	-3323
▁strategy	-3324
▁increased	-3325
▁interests	-3326
▁combination	-3327
asc	-3328
min	-3329
cket	-3330
phas	-3331
ping	-3332
▁gas	-3333
▁mut	-3334
▁tax	-3335
▁enem	-3336
▁emerg	-3337
▁magic	-3338
▁query	-3339
▁actual	-3340
▁branch	-3341
▁execut	-3342
▁origin	-3343
▁browser	-3344
▁formula	-3345
▁statement	-3346
1)	-3347
olf	-3348
▁Gu	-3349
▁II	-3350
▁Mat	-3351
▁mit	-3352
▁pad	-3353
▁sup	-3354
icles	-3355
▁save	-3356
strict	-3357
▁chain	-3358
▁death	-3359
▁breath	-3360
▁recipe	-3361
▁symbol	-3362
▁Germany	-3363
▁computers	-3364
▁container	-3365
div	-3366
▁17	-3367
book	-3368
nown	-3369
omic	-3370
pass	-3371
▁Pol	-3372
▁eat	-3373
▁eye	-3374
▁wel	-3375
arian	-3376
level	-3377
▁Take	-3378
▁acid	-3379
▁film	-3380
▁magn	-3381
▁pick	-3382
▁repe	-3383
▁weap	-3384
▁chord	-3385
▁fully	-3386
▁third	-3387
▁wrong	-3388
▁topics	-3389
▁sustain	-3390
▁European	-3391
▁reducing	-3392
▁According	-3393
▁customers	-3394
▁libraries	-3395
▁mathematics	-3396
IG	-3397
PS	-3398
oe	-3399
-10	-3400
spe	-3401
▁(2	-3402
▁14	-3403
▁Pe	-3404
vice	-3405
▁###	-3406
▁pip	-3407
▁sty	-3408
ensor	-3409
eries	-3410
▁fair	-3411
▁race	-3412
▁rise	-3413
▁warm	-3414
▁numer	-3415
ography	-3416
▁vector	-3417
▁attacks	-3418
▁console	-3419
▁audience	-3420
▁advantage	-3421
▁existence	-3422
▁technical	-3423
50	-3424
Wh	-3425
csv	-3426
ley	-3427
pir	-3428
▁Co	-3429
aged	-3430
aily	-3431
unch	-3432
used	-3433
▁ban	-3434
▁tun	-3435
▁deli	-3436
▁metal	-3437
▁moral	-3438
▁nucle	-3439
▁risks	-3440
▁score	-3441
▁speak	-3442
▁taste	-3443
ountain	-3444
▁powers	-3445
▁recent	-3446
▁physics	-3447
▁emotions	-3448
▁Therefore	-3449
▁connected	-3450
▁collection	-3451
▁importance	-3452
Ex	-3453
[0	-3454
su	-3455
▁%	-3456
ारत	-3457
▁df	-3458
lock	-3459
type	-3460
▁All	-3461
▁cru	-3462
▁map	-3463
▁men	-3464
ament	-3465
▁fail	-3466
▁push	-3467
▁Gener	-3468
▁guide	-3469
▁carbon	-3470
▁electr	-3471
▁members	-3472
▁feelings	-3473
▁responsible	-3474
▁opportunities	-3475
▁organizations	-3476
':	-3477
64	-3478
wh	-3479
---	-3480
▁1,	-3481
====	-3482
hold	-3483
rate	-3484
▁Mod	-3485
▁cho	-3486
▁नाम	-3487
illed	-3488
▁Also	-3489
▁diet	-3490
▁drag	-3491
▁walk	-3492
though	-3493
▁Trans	-3494
▁apart	-3495
▁Intern	-3496
▁System	-3497
▁credit	-3498
▁mental	-3499
▁finding	-3500
▁restrict	-3501
▁architecture	-3502
17	-3503
[1	-3504
arr	-3505
irl	-3506
nds	-3507
rim	-3508
tra	-3509
▁से	-3510
▁198	-3511
▁Max	-3512
input	-3513
poses	-3514
uracy	-3515
▁camp	-3516
▁myth	-3517
▁seek	-3518
atives	-3519
▁Great	-3520
▁daily	-3521
▁divid	-3522
▁flour	-3523
▁client	-3524
▁pieces	-3525
▁videos	-3526
▁remains	-3527
▁instance	-3528
▁regularly	-3529
▁contribute	-3530
▁engineering	-3531
3)	-3532
gs	-3533
ech	-3534
▁कब	-3535
View	-3536
ales	-3537
▁bow	-3538
ounds	-3539
▁opin	-3540
▁plug	-3541
urance	-3542
▁Hello	-3543
▁assum	-3544
▁claim	-3545
▁extra	-3546
▁quite	-3547
▁robot	-3548
▁budget	-3549
▁expert	-3550
▁promot	-3551
▁record	-3552
▁analyze	-3553
▁Consider	-3554
▁arguments	-3555
▁mechanics	-3556
▁effectively	-3557
ero	-3558
ops	-3559
rel	-3560
iced	-3561
eline	-3562
ously	-3563
▁Give	-3564
▁soon	-3565
▁unit	-3566
▁movie	-3567
▁Empire	-3568
▁emphas	-3569
▁smooth	-3570
▁thread	-3571
▁volume	-3572
▁consult	-3573
▁talking	-3574
▁accuracy	-3575
▁believed	-3576
▁websites	-3577
▁copyright	-3578
▁direction	-3579
▁particles	-3580
▁solutions	-3581
32	-3582
bi	-3583
agn	-3584
▁11	-3585
osis	-3586
▁cit	-3587
▁vel	-3588
▁win	-3589
alled	-3590
angle	-3591
▁acad	-3592
▁late	-3593
▁began	-3594
▁parad	-3595
▁satis	-3596
▁stars	-3597
▁anyone	-3598
▁filter	-3599
▁strugg	-3600
inecraft	-3601
▁Spanish	-3602
▁compare	-3603
▁inspire	-3604
▁collabor	-3605
▁existing	-3606
▁password	-3607
▁thinking	-3608
▁Certainly	-3609
▁according	-3610
▁challenge	-3611
▁equipment	-3612
▁historical	-3613
?"	-3614
`.	-3615
rm	-3616
iny	-3617
▁Fl	-3618
▁ir	-3619
IGHT	-3620
bing	-3621
▁Min	-3622
▁Sun	-3623
▁Vis	-3624
▁sil	-3625
▁und	-3626
rench	-3627
▁cold	-3628
agraph	-3629
▁stock	-3630
▁errors	-3631
▁passed	-3632
▁stable	-3633
▁causing	-3634
▁contract	-3635
▁dangerous	-3636
▁successful	-3637
▁underlying	-3638
!"	-3639
नी	-3640
ged	-3641
hel	-3642
rem	-3643
uff	-3644
▁Of	-3645
ayer	-3646
plit	-3647
user	-3648
▁Off	-3649
▁god	-3650
▁got	-3651
ocket	-3652
▁clim	-3653
▁lapt	-3654
▁salt	-3655
▁भारत	-3656
▁added	-3657
▁angle	-3658
▁index	-3659
▁logic	-3660
▁Choose	-3661
▁master	-3662
▁rights	-3663
▁supply	-3664
▁update	-3665
▁central	-3666
▁largest	-3667
▁primary	-3668
▁promote	-3669
▁creative	-3670
▁demonstr	-3671
▁separate	-3672
▁continues	-3673
▁establish	-3674
▁interpret	-3675
▁parameters	-3676
▁population	-3677
30	-3678
क्	-3679
ाल	-3680
ino	-3681
ony	-3682
que	-3683
ums	-3684
hedu	-3685
rial	-3686
▁Our	-3687
▁arr	-3688
▁स्थ	-3689
ether	-3690
ights	-3691
iliar	-3692
▁five	-3693
▁chess	-3694
▁usage	-3695
osition	-3696
utorial	-3697
▁famous	-3698
▁prefer	-3699
▁retrie	-3700
▁reward	-3701
atically	-3702
▁aspects	-3703
▁feeling	-3704
▁fishing	-3705
▁forward	-3706
▁gravity	-3707
▁serious	-3708
▁welcome	-3709
▁critical	-3710
▁resulting	-3711
▁perspective	-3712
TT	-3713
opt	-3714
vas	-3715
▁rh	-3716
flow	-3717
▁CPU	-3718
▁mom	-3719
▁sky	-3720
▁Good	-3721
▁defe	-3722
▁vert	-3723
encies	-3724
ternal	-3725
▁hands	-3726
▁party	-3727
▁visit	-3728
ruction	-3729
▁caused	-3730
▁engage	-3731
▁disease	-3732
▁maximum	-3733
▁traffic	-3734
▁capabilities	-3735
elt	-3736
fra	-3737
pot	-3738
unk	-3739
▁वि	-3740
ouch	-3741
ried	-3742
rive	-3743
▁Ret	-3744
▁Val	-3745
▁dry	-3746
berry	-3747
istry	-3748
uries	-3749
▁Comp	-3750
▁YouT	-3751
▁hair	-3752
▁depth	-3753
▁shows	-3754
ativity	-3755
ructure	-3756
▁cheese	-3757
▁extract	-3758
▁reality	-3759
▁changing	-3760
▁geometry	-3761
▁suitable	-3762
▁improving	-3763
▁implementation	-3764
TH	-3765
`,	-3766
Com	-3767
ams	-3768
dis	-3769
▁PC	-3770
▁kn	-3771
000,	-3772
hood	-3773
room	-3774
▁011	-3775
▁Who	-3776
▁phr	-3777
▁Lear	-3778
▁Stud	-3779
▁news	-3780
▁tour	-3781
▁Under	-3782
▁float	-3783
▁front	-3784
▁ideal	-3785
▁novel	-3786
unction	-3787
▁filled	-3788
▁limits	-3789
▁Provide	-3790
▁convert	-3791
▁approxim	-3792
▁education	-3793
▁practical	-3794
▁definition	-3795
▁philosophy	-3796
▁situations	-3797
▁specifically	-3798
EN	-3799
she	-3800
▁du	-3801
icle	-3802
illa	-3803
inks	-3804
life	-3805
rand	-3806
ying	-3807
▁1/2	-3808
gebra	-3809
iling	-3810
known	-3811
osure	-3812
▁Does	-3813
▁goes	-3814
▁week	-3815
▁Other	-3816
▁crypt	-3817
▁dream	-3818
▁secre	-3819
▁smart	-3820
lightly	-3821
oration	-3822
▁advance	-3823
▁defined	-3824
▁release	-3825
▁storage	-3826
▁attribut	-3827
▁resource	-3828
▁supplies	-3829
▁advantages	-3830
▁relatively	-3831
म्	-3832
ष्	-3833
ele	-3834
uzz	-3835
zing	-3836
▁His	-3837
▁hit	-3838
▁राज	-3839
erate	-3840
write	-3841
▁conv	-3842
▁mode	-3843
▁pret	-3844
▁valu	-3845
▁vast	-3846
ifying	-3847
weight	-3848
▁civil	-3849
▁cloud	-3850
▁fresh	-3851
▁meant	-3852
android	-3853
▁demand	-3854
▁amounts	-3855
▁crucial	-3856
▁favorite	-3857
▁messages	-3858
▁transport	-3859
▁investment	-3860
▁protection	-3861
▁regulations	-3862
▁environmental	-3863
ae	-3864
dy	-3865
ha	-3866
esp	-3867
िया	-3868
olve	-3869
step	-3870
uses	-3871
▁cro	-3872
odies	-3873
▁rein	-3874
▁rich	-3875
etimes	-3876
nesses	-3877
▁capac	-3878
▁heavy	-3879
▁indic	-3880
▁refer	-3881
▁seems	-3882
ocolate	-3883
▁adding	-3884
▁apolog	-3885
▁moving	-3886
▁spirit	-3887
▁testing	-3888
▁humanity	-3889
▁template	-3890
▁assistance	-3891
▁eventually	-3892
▁represents	-3893
aks	-3894
eli	-3895
met	-3896
त्र	-3897
▁Af	-3898
ched	-3899
orem	-3900
▁199	-3901
▁Doc	-3902
▁bur	-3903
where	-3904
▁Diff	-3905
▁Look	-3906
▁bank	-3907
▁boot	-3908
▁foot	-3909
▁neur	-3910
▁talk	-3911
▁Power	-3912
▁fruit	-3913
▁notes	-3914
▁shell	-3915
▁bottom	-3916
▁detail	-3917
▁gaming	-3918
▁middle	-3919
▁obtain	-3920
▁policy	-3921
▁tables	-3922
▁algebra	-3923
▁capital	-3924
▁exactly	-3925
▁magical	-3926
▁aircraft	-3927
▁tutorial	-3928
▁comfortable	-3929
▁explanation	-3930
7,	-3931
TP	-3932
dr	-3933
री	-3934
cel	-3935
ned	-3936
oll	-3937
oon	-3938
rog	-3939
arty	-3940
pped	-3941
atory	-3942
idden	-3943
xture	-3944
▁High	-3945
▁bias	-3946
▁farm	-3947
▁half	-3948
▁reve	-3949
▁sympt	-3950
▁units	-3951
itution	-3952
▁Define	-3953
▁asking	-3954
▁invent	-3955
▁leaves	-3956
▁season	-3957
▁Instead	-3958
▁battery	-3959
▁complet	-3960
▁dataset	-3961
▁economy	-3962
▁receive	-3963
▁scenari	-3964
plications	-3965
▁popularity	-3966
▁consumption	-3967
▁instructions	-3968
16	-3969
OR	-3970
])	-3971
hib	-3972
arge	-3973
bles	-3974
cont	-3975
rows	-3976
sect	-3977
untu	-3978
▁Det	-3979
iding	-3980
▁Both	-3981
▁Just	-3982
▁King	-3983
▁Step	-3984
▁feet	-3985
▁fing	-3986
ership	-3987
person	-3988
unning	-3989
▁democ	-3990
▁gives	-3991
▁psych	-3992
▁German	-3993
▁enable	-3994
▁except	-3995
▁becomes	-3996
▁billion	-3997
▁dynamic	-3998
▁academic	-3999
▁purchase	-4000
▁purposes	-4001
▁settings	-4002
ifications	-4003
▁correctly	-4004
▁extension	-4005
▁ingredients	-4006
9,	-4007
AS	-4008
ED	-4009
ET	-4010
Th	-4011
].	-4012
▁त	-4013
mod	-4014
nam	-4015
avas	-4016
code	-4017
ging	-4018
ingu	-4019
rier	-4020
▁Med	-4021
▁Not	-4022
▁swe	-4023
▁});	-4024
earch	-4025
press	-4026
style	-4027
▁Cent	-4028
▁girl	-4029
ellent	-4030
stream	-4031
▁North	-4032
▁Would	-4033
▁below	-4034
▁costs	-4035
▁cover	-4036
▁enter	-4037
▁causes	-4038
▁signal	-4039
▁Despite	-4040
▁classic	-4041
▁patient	-4042
avascript	-4043
▁creation	-4044
▁cultures	-4045
▁official	-4046
ew	-4047
');	-4048
ana	-4049
des	-4050
ils	-4051
▁ax	-4052
eper	-4053
hens	-4054
ocal	-4055
▁Out	-4056
▁Par	-4057
▁ble	-4058
▁fan	-4059
▁sex	-4060
▁वर्	-4061
acing	-4062
ctors	-4063
inate	-4064
▁Mach	-4065
▁flat	-4066
▁luck	-4067
▁obst	-4068
▁pros	-4069
▁runs	-4070
▁trig	-4071
▁wild	-4072
elines	-4073
ession	-4074
▁Where	-4075
▁bound	-4076
▁broad	-4077
▁curve	-4078
▁phone	-4079
▁relig	-4080
▁serve	-4081
▁sport	-4082
▁flavor	-4083
▁flight	-4084
▁switch	-4085
▁capture	-4086
▁counter	-4087
▁focused	-4088
▁commands	-4089
▁engaging	-4090
▁expected	-4091
▁transfer	-4092
▁Minecraft	-4093
▁apologize	-4094
▁specified	-4095
▁determined	-4096
▁vegetables	-4097
▁description	-4098
14	-4099
5.	-4100
BS	-4101
CT	-4102
SQL	-4103
▁Ok	-4104
▁थी	-4105
▁सं	-4106
eral	-4107
ibly	-4108
▁Art	-4109
▁Sub	-4110
ocity	-4111
▁Pres	-4112
String	-4113
amples	-4114
▁craft	-4115
▁fixed	-4116
▁looks	-4117
▁sauce	-4118
▁sides	-4119
▁During	-4120
▁battle	-4121
▁commer	-4122
▁latest	-4123
▁layers	-4124
▁propos	-4125
▁styles	-4126
▁British	-4127
▁Western	-4128
▁allowed	-4129
▁applied	-4130
▁mixture	-4131
▁priorit	-4132
▁supports	-4133
▁mentioned	-4134
▁scientists	-4135
▁limitations	-4136
-2	-4137
DO	-4138
px	-4139
sm	-4140
che	-4141
ses	-4142
uit	-4143
▁Up	-4144
▁il	-4145
AION	-4146
ades	-4147
ests	-4148
onic	-4149
rade	-4150
▁GPT	-4151
▁Lat	-4152
▁lyr	-4153
▁pet	-4154
▁ple	-4155
▁tab	-4156
being	-4157
eling	-4158
hesis	-4159
▁came	-4160
▁dish	-4161
▁join	-4162
hedule	-4163
icking	-4164
▁potat	-4165
▁sugar	-4166
▁conver	-4167
▁factor	-4168
▁figure	-4169
▁module	-4170
▁office	-4171
▁places	-4172
▁sample	-4173
▁diverse	-4174
▁paradox	-4175
▁protein	-4176
▁identity	-4177
▁released	-4178
▁symptoms	-4179
▁chocolate	-4180
▁developer	-4181
▁highlight	-4182
▁probability	-4183
▁configuration	-4184
▁philosophical	-4185
55	-4186
80	-4187
sp	-4188
ाप	-4189
alt	-4190
cos	-4191
ibr	-4192
med	-4193
▁1)	-4194
oint	-4195
plot	-4196
poon	-4197
reci	-4198
serv	-4199
▁Aut	-4200
▁Har	-4201
▁std	-4202
apter	-4203
orrow	-4204
▁fill	-4205
▁iron	-4206
▁lost	-4207
▁oven	-4208
▁soil	-4209
▁stra	-4210
▁wind	-4211
▁Build	-4212
▁illeg	-4213
▁peace	-4214
▁remov	-4215
▁moment	-4216
▁movies	-4217
▁YouTube	-4218
▁answers	-4219
▁capable	-4220
▁cooking	-4221
▁himself	-4222
▁regions	-4223
▁researc	-4224
▁routine	-4225
▁strings	-4226
▁studies	-4227
roduction	-4228
▁particip	-4229
▁received	-4230
▁theories	-4231
▁thoughts	-4232
▁installed	-4233
▁strengths	-4234
8,	-4235
ql	-4236
रा	-4237
box	-4238
▁Hi	-4239
aper	-4240
▁Inc	-4241
▁Num	-4242
▁URL	-4243
▁ast	-4244
▁cos	-4245
rency	-4246
▁abst	-4247
▁dead	-4248
▁knew	-4249
▁math	-4250
▁plot	-4251
▁qual	-4252
▁rain	-4253
ishing	-4254
▁Greek	-4255
▁accom	-4256
▁dough	-4257
▁immed	-4258
▁noise	-4259
▁relax	-4260
▁songs	-4261
▁biases	-4262
▁bright	-4263
▁combat	-4264
▁leader	-4265
▁member	-4266
▁myself	-4267
▁vision	-4268
friendly	-4269
▁artists	-4270
▁attract	-4271
▁contact	-4272
▁corresp	-4273
▁section	-4274
▁navigate	-4275
▁construct	-4276
▁interactions	-4277
▁functionality	-4278
/4	-4279
UR	-4280
ua	-4281
मा	-4282
▁]	-4283
gre	-4284
mar	-4285
ref	-4286
▁13	-4287
▁CO	-4288
▁os	-4289
▁ri	-4290
alle	-4291
ceed	-4292
ened	-4293
omes	-4294
rief	-4295
▁Act	-4296
▁Don	-4297
▁Mac	-4298
▁alm	-4299
▁den	-4300
▁sav	-4301
itory	-4302
▁born	-4303
▁cogn	-4304
▁hear	-4305
▁milk	-4306
▁wall	-4307
▁goods	-4308
▁micro	-4309
▁polic	-4310
mission	-4311
ressive	-4312
▁France	-4313
▁interf	-4314
▁lights	-4315
▁lyrics	-4316
▁speech	-4317
▁starts	-4318
▁America	-4319
▁Science	-4320
▁appreci	-4321
▁editing	-4322
▁efforts	-4323
▁willing	-4324
▁presence	-4325
▁printing	-4326
▁slightly	-4327
▁valuable	-4328
▁exercises	-4329
▁dimensions	-4330
▁influenced	-4331
▁optimization	-4332
▁documentation	-4333
▁recommendations	-4334
1_	-4335
lev	-4336
omb	-4337
wid	-4338
▁0;	-4339
▁:=	-4340
▁Ub	-4341
▁ox	-4342
alax	-4343
grad	-4344
icks	-4345
mosp	-4346
rist	-4347
▁Car	-4348
▁bra	-4349
▁hun	-4350
▁occ	-4351
▁sea	-4352
▁कहा	-4353
enses	-4354
scale	-4355
▁wave	-4356
onding	-4357
ulated	-4358
▁Apple	-4359
▁Union	-4360
▁align	-4361
▁grand	-4362
▁rough	-4363
▁thick	-4364
▁Before	-4365
▁Comput	-4366
▁atmosp	-4367
▁behavi	-4368
▁blocks	-4369
▁doctor	-4370
▁gather	-4371
▁wealth	-4372
▁growing	-4373
▁learned	-4374
plication	-4375
▁discover	-4376
▁optimize	-4377
▁planning	-4378
▁continued	-4379
▁sometimes	-4380
▁consistent	-4381
▁generation	-4382
▁statements	-4383
40	-4384
da	-4385
cer	-4386
ief	-4387
pes	-4388
pow	-4389
sum	-4390
ugg	-4391
▁""	-4392
affe	-4393
inst	-4394
orge	-4395
otic	-4396
rown	-4397
▁ign	-4398
▁oce	-4399
▁plt	-4400
iring	-4401
lines	-4402
ogram	-4403
onent	-4404
order	-4405
▁cris	-4406
▁didn	-4407
▁hero	-4408
▁tact	-4409
▁teas	-4410
▁went	-4411
ansion	-4412
▁Afric	-4413
▁Unity	-4414
▁accel	-4415
▁chann	-4416
▁colle	-4417
▁gradu	-4418
▁heard	-4419
▁lived	-4420
▁medic	-4421
amental	-4422
tenance	-4423
▁Person	-4424
▁camera	-4425
▁degree	-4426
▁desire	-4427
▁empire	-4428
▁gender	-4429
▁layout	-4430
▁sounds	-4431
▁stored	-4432
notation	-4433
▁license	-4434
▁student	-4435
ibilities	-4436
▁distract	-4437
▁guidance	-4438
▁generated	-4439
▁technique	-4440
rastructure	-4441
▁communicate	-4442
▁fundamental	-4443
▁independent	-4444
can	-4445
emb	-4446
pat	-4447
udd	-4448
▁2)	-4449
clus	-4450
iful	-4451
▁Att	-4452
▁bot	-4453
▁har	-4454
▁pub	-4455
▁rap	-4456
▁var	-4457
array	-4458
point	-4459
print	-4460
▁Disc	-4461
▁Stre	-4462
▁fant	-4463
▁keys	-4464
ashing	-4465
itches	-4466
string	-4467
▁Pract	-4468
▁React	-4469
▁brand	-4470
▁merge	-4471
▁orbit	-4472
▁prime	-4473
▁trade	-4474
▁trees	-4475
▁truth	-4476
include	-4477
▁French	-4478
▁deeper	-4479
▁forest	-4480
▁incred	-4481
▁shared	-4482
▁syntax	-4483
▁themes	-4484
▁default	-4485
▁queries	-4486
▁stories	-4487
efficient	-4488
▁sentence	-4489
▁primarily	-4490
▁recognize	-4491
▁accessible	-4492
▁commercial	-4493
▁completely	-4494
▁expression	-4495
▁transition	-4496
▁environments	-4497
DE	-4498
Tr	-4499
gy	-4500
ली	-4501
ada	-4502
hol	-4503
omy	-4504
ttp	-4505
▁##	-4506
▁Ab	-4507
▁Id	-4508
▁JS	-4509
enty	-4510
etes	-4511
more	-4512
▁Hum	-4513
▁Tur	-4514
▁sou	-4515
event	-4516
frame	-4517
▁Aust	-4518
▁dict	-4519
▁gram	-4520
▁pair	-4521
▁pand	-4522
▁repl	-4523
▁tend	-4524
▁wear	-4525
▁Inter	-4526
▁alien	-4527
▁antib	-4528
▁asked	-4529
▁decre	-4530
▁deriv	-4531
▁drink	-4532
▁solid	-4533
ossible	-4534
▁animal	-4535
▁assign	-4536
▁landsc	-4537
▁pepper	-4538
▁societ	-4539
▁spaces	-4540
▁static	-4541
▁Install	-4542
▁classes	-4543
forcement	-4544
▁overcome	-4545
▁emotional	-4546
▁employees	-4547
▁insurance	-4548
▁temperatures	-4549
▁automatically	-4550
▁infrastructure	-4551
45	-4552
def	-4553
dim	-4554
lib	-4555
mun	-4556
oke	-4557
zer	-4558
▁Sk	-4559
▁},	-4560
erry	-4561
item	-4562
izza	-4563
mers	-4564
year	-4565
▁Mer	-4566
▁bul	-4567
▁fat	-4568
▁kit	-4569
▁syn	-4570
ffect	-4571
overy	-4572
▁bird	-4573
▁burn	-4574
▁dogs	-4575
▁mill	-4576
▁shop	-4577
▁star	-4578
▁citiz	-4579
▁false	-4580
▁humor	-4581
▁voice	-4582
▁compre	-4583
▁formal	-4584
▁shapes	-4585
▁spells	-4586
▁harmful	-4587
▁distinct	-4588
▁improved	-4589
▁operation	-4590
▁accurately	-4591
▁discovered	-4592
▁foundation	-4593
▁innovation	-4594
▁experienced	-4595
▁contributions	-4596
";	-4597
70	-4598
RE	-4599
ey	-4600
fl	-4601
asp	-4602
lor	-4603
yal	-4604
ट्र	-4605
▁IS	-4606
▁Py	-4607
▁RE	-4608
▁Sm	-4609
▁wa	-4610
chol	-4611
main	-4612
real	-4613
▁agg	-4614
▁enh	-4615
░░░░	-4616
ufact	-4617
▁Have	-4618
▁dwar	-4619
▁meal	-4620
▁seed	-4621
▁Const	-4622
▁adult	-4623
▁sheet	-4624
▁touch	-4625
holders	-4626
▁Calcul	-4627
▁Engine	-4628
▁Ubuntu	-4629
▁afford	-4630
▁laptop	-4631
▁wanted	-4632
▁nuclear	-4633
▁seeking	-4634
▁updated	-4635
▁contrast	-4636
▁external	-4637
▁happened	-4638
▁policies	-4639
▁velocity	-4640
▁efficiently	-4641
▁representation	-4642
ला	-4643
");	-4644
bar	-4645
bre	-4646
cks	-4647
fig	-4648
ris	-4649
▁aw	-4650
▁tk	-4651
agon	-4652
iers	-4653
vere	-4654
ygen	-4655
your	-4656
▁mob	-4657
icing	-4658
izard	-4659
▁Alex	-4660
▁apps	-4661
▁bowl	-4662
▁edge	-4663
▁elif	-4664
▁trou	-4665
▁void	-4666
change	-4667
▁LAION	-4668
▁alone	-4669
▁hyper	-4670
▁instr	-4671
▁liter	-4672
▁stick	-4673
▁vegan	-4674
▁waves	-4675
ository	-4676
▁eating	-4677
▁unable	-4678
▁Example	-4679
▁android	-4680
▁keyword	-4681
▁plastic	-4682
▁becoming	-4683
▁stability	-4684
▁approximately	-4685
▁international	-4686
FT	-4687
मी	-4688
Pro	-4689
edy	-4690
lik	-4691
▁Ag	-4692
▁fr	-4693
▁iP	-4694
ella	-4695
page	-4696
rees	-4697
▁cub	-4698
etime	-4699
pping	-4700
▁WebS	-4701
▁evil	-4702
▁skin	-4703
▁snow	-4704
▁util	-4705
▁Black	-4706
▁Click	-4707
▁Elect	-4708
▁Graph	-4709
▁absor	-4710
▁bread	-4711
▁carry	-4712
▁essay	-4713
▁habit	-4714
▁miles	-4715
▁roots	-4716
▁shall	-4717
▁therm	-4718
▁width	-4719
inating	-4720
▁butter	-4721
▁circum	-4722
▁compar	-4723
▁compil	-4724
▁income	-4725
▁injury	-4726
▁motion	-4727
▁muscle	-4728
▁paddle	-4729
▁stream	-4730
▁Machine	-4731
▁Regular	-4732
▁concent	-4733
▁genetic	-4734
▁planets	-4735
▁solving	-4736
▁survive	-4737
▁weights	-4738
▁National	-4739
▁overview	-4740
▁reliable	-4741
▁paragraph	-4742
▁therefore	-4743
▁approaches	-4744
▁blockchain	-4745
▁electronic	-4746
▁prioritize	-4747
▁profession	-4748
▁subjective	-4749
13	-4750
Cl	-4751
II	-4752
df	-4753
jo	-4754
Int	-4755
[1]	-4756
off	-4757
rig	-4758
▁50	-4759
▁जा	-4760
Base	-4761
etch	-4762
hing	-4763
ided	-4764
▁Its	-4765
▁Sol	-4766
▁mid	-4767
▁tru	-4768
▁unc	-4769
▁uns	-4770
▁vot	-4771
crete	-4772
itter	-4773
plays	-4774
prise	-4775
ratic	-4776
▁Pros	-4777
▁Text	-4778
▁clar	-4779
▁copy	-4780
▁gets	-4781
▁grad	-4782
▁phen	-4783
▁sold	-4784
▁zero	-4785
anches	-4786
encing	-4787
points	-4788
▁cyber	-4789
▁hypot	-4790
▁label	-4791
▁rapid	-4792
▁rhyth	-4793
▁women	-4794
connect	-4795
▁extend	-4796
▁photos	-4797
▁status	-4798
standing	-4799
▁comment	-4800
▁illegal	-4801
▁outline	-4802
▁updates	-4803
▁abstract	-4804
▁flexible	-4805
▁included	-4806
▁carefully	-4807
▁classical	-4808
▁functional	-4809
▁impossible	-4810
▁established	-4811
▁opportunity	-4812
▁personalized	-4813
▁perspectives	-4814
4.	-4815
99	-4816
AC	-4817
LL	-4818
gu	-4819
{\	-4820
rol	-4821
zen	-4822
▁1:	-4823
▁3,	-4824
▁Ob	-4825
▁Te	-4826
atur	-4827
cast	-4828
chem	-4829
▁Her	-4830
▁alt	-4831
▁pen	-4832
allel	-4833
asure	-4834
inese	-4835
ygame	-4836
▁Work	-4837
▁deal	-4838
▁town	-4839
inated	-4840
▁Focus	-4841
▁Train	-4842
▁leave	-4843
▁radar	-4844
▁ready	-4845
raction	-4846
▁Russia	-4847
▁assess	-4848
▁career	-4849
▁folder	-4850
▁inputs	-4851
▁melody	-4852
▁months	-4853
▁tempor	-4854
▁worked	-4855
▁writer	-4856
▁encrypt	-4857
▁matches	-4858
▁minimum	-4859
▁opening	-4860
▁prepare	-4861
▁ensuring	-4862
▁estimate	-4863
▁exposure	-4864
▁integers	-4865
▁mountain	-4866
▁beautiful	-4867
▁encourage	-4868
▁repository	-4869
▁considering	-4870
▁sustainable	-4871
▁implementing	-4872
sk	-4873
ीय	-4874
enn	-4875
equ	-4876
▁40	-4877
▁80	-4878
Text	-4879
Your	-4880
aign	-4881
coin	-4882
▁CSV	-4883
▁Rep	-4884
▁saw	-4885
EIGHT	-4886
hetic	-4887
osite	-4888
train	-4889
▁bact	-4890
▁cert	-4891
▁cred	-4892
▁flav	-4893
▁kids	-4894
▁liqu	-4895
▁moon	-4896
▁onto	-4897
▁stri	-4898
▁took	-4899
ancing	-4900
output	-4901
rought	-4902
▁conve	-4903
▁reput	-4904
▁views	-4905
▁attend	-4906
▁chance	-4907
▁compat	-4908
▁divide	-4909
▁forces	-4910
▁hidden	-4911
▁listen	-4912
▁render	-4913
▁sharing	-4914
▁univers	-4915
▁Research	-4916
▁campaign	-4917
▁followed	-4918
▁inspired	-4919
▁manufact	-4920
▁national	-4921
▁potatoes	-4922
▁schedule	-4923
▁expensive	-4924
▁happiness	-4925
▁positions	-4926
▁tutorials	-4927
▁biological	-4928
▁comprehens	-4929
▁industries	-4930
▁maintaining	-4931
▁authentication	-4932
Ar	-4933
IM	-4934
ंग	-4935
टर	-4936
aby	-4937
ped	-4938
uns	-4939
▁0,	-4940
▁हो	-4941
ango	-4942
cker	-4943
izer	-4944
json	-4945
▁Bob	-4946
▁Day	-4947
▁Hol	-4948
▁USB	-4949
▁via	-4950
going	-4951
nding	-4952
ought	-4953
▁Blue	-4954
▁Part	-4955
▁Will	-4956
▁empt	-4957
▁fear	-4958
▁fuel	-4959
▁किया	-4960
commod	-4961
istant	-4962
▁Ident	-4963
▁Their	-4964
▁anime	-4965
▁recip	-4966
▁stret	-4967
ivalent	-4968
iveness	-4969
▁assume	-4970
▁binary	-4971
▁coming	-4972
▁debate	-4973
▁illust	-4974
▁noting	-4975
▁observ	-4976
▁radius	-4977
▁thanks	-4978
itutions	-4979
▁Chinese	-4980
▁constra	-4981
▁density	-4982
▁enemies	-4983
▁flowers	-4984
▁leaving	-4985
▁letters	-4986
▁neurons	-4987
▁seconds	-4988
▁calculus	-4989
▁capacity	-4990
▁familiar	-4991
▁matching	-4992
▁adventure	-4993
▁animation	-4994
▁validation	-4995
▁contributed	-4996
▁implemented	-4997
▁maintenance	-4998
PG	-4999
ux	-5000
():	-5001
pic	-5002
reg	-5003
न्म	-5004
▁2:	-5005
▁TV	-5006
cies	-5007
init	-5008
lean	-5009
writ	-5010
▁...	-5011
▁CSS	-5012
▁Flu	-5013
▁Hey	-5014
▁Tra	-5015
▁cin	-5016
▁fem	-5017
▁mir	-5018
▁pul	-5019
▁rev	-5020
▁son	-5021
▁tow	-5022
▁van	-5023
abric	-5024
image	-5025
inant	-5026
itors	-5027
pload	-5028
score	-5029
width	-5030
▁8-10	-5031
▁Game	-5032
▁Netw	-5033
▁Tell	-5034
▁infl	-5035
▁joke	-5036
▁puzz	-5037
▁rows	-5038
▁thus	-5039
angers	-5040
othing	-5041
▁Avoid	-5042
▁Super	-5043
▁brief	-5044
▁clone	-5045
▁owner	-5046
▁plans	-5047
▁rates	-5048
▁sweet	-5049
▁tried	-5050
fitting	-5051
▁Design	-5052
▁manner	-5053
▁careful	-5054
▁finally	-5055
▁vectors	-5056
formation	-5057
▁branches	-5058
▁cognitive	-5059
▁delicious	-5060
▁controvers	-5061
▁frequently	-5062
▁electricity	-5063
0)	-5064
23	-5065
7.	-5066
ND	-5067
OM	-5068
ATE	-5069
ags	-5070
ica	-5071
umb	-5072
▁Am	-5073
▁Gr	-5074
▁Ty	-5075
▁[]	-5076
▁cm	-5077
▁भा	-5078
bell	-5079
chen	-5080
curs	-5081
hest	-5082
onds	-5083
onna	-5084
rror	-5085
such	-5086
▁Ant	-5087
▁Fur	-5088
▁fer	-5089
▁hon	-5090
▁kid	-5091
▁vir	-5092
ambda	-5093
cules	-5094
ested	-5095
omial	-5096
▁Type	-5097
▁clos	-5098
▁sell	-5099
▁जन्म	-5100
aching	-5101
anging	-5102
ecause	-5103
idents	-5104
▁Marty	-5105
▁absol	-5106
▁argue	-5107
▁brown	-5108
▁facts	-5109
▁plane	-5110
▁sizes	-5111
▁skill	-5112
▁stack	-5113
▁thank	-5114
▁truly	-5115
▁कितने	-5116
▁circle	-5117
▁oxygen	-5118
▁plenty	-5119
▁portal	-5120
▁remote	-5121
▁versat	-5122
▁changed	-5123
▁driving	-5124
▁manager	-5125
▁prompts	-5126
▁typical	-5127
▁weapons	-5128
▁controll	-5129
▁division	-5130
▁offering	-5131
▁phenomen	-5132
▁produced	-5133
▁stronger	-5134
▁studying	-5135
▁switches	-5136
▁WebSocket	-5137
▁regarding	-5138
▁businesses	-5139
▁calculated	-5140
▁introduced	-5141
▁manipulate	-5142
▁mathematic	-5143
▁personality	-5144
▁specialized	-5145
((	-5146
48	-5147
PE	-5148
Pr	-5149
](	-5150
hy	-5151
la	-5152
bor	-5153
ued	-5154
▁->	-5155
▁La	-5156
▁पह	-5157
IDTH	-5158
java	-5159
root	-5160
uary	-5161
utch	-5162
▁pin	-5163
▁scr	-5164
inner	-5165
▁Form	-5166
▁Most	-5167
▁Prot	-5168
▁Rome	-5169
▁glad	-5170
▁neck	-5171
▁poll	-5172
▁scal	-5173
▁trip	-5174
astern	-5175
making	-5176
▁conqu	-5177
▁estim	-5178
▁horiz	-5179
▁moves	-5180
▁nodes	-5181
partial	-5182
plement	-5183
▁String	-5184
▁cities	-5185
▁domain	-5186
▁lifest	-5187
▁satisf	-5188
▁accompl	-5189
▁divided	-5190
▁earthqu	-5191
▁integer	-5192
▁outcome	-5193
▁restaur	-5194
▁signals	-5195
▁Practice	-5196
▁criteria	-5197
▁diseases	-5198
▁insights	-5199
▁internal	-5200
▁particle	-5201
▁retrieve	-5202
▁President	-5203
▁entertain	-5204
▁excellent	-5205
▁fictional	-5206
▁interview	-5207
▁investors	-5208
▁standards	-5209
▁appearance	-5210
▁revolution	-5211
▁interactive	-5212
▁researchers	-5213
▁translation	-5214
▁installation	-5215
▁characteristics	-5216
hop	-5217
tem	-5218
▁मु	-5219
Time	-5220
iant	-5221
pack	-5222
ryst	-5223
sert	-5224
this	-5225
▁Gra	-5226
▁Spe	-5227
▁rom	-5228
▁veh	-5229
▁yes	-5230
Inter	-5231
antic	-5232
click	-5233
illet	-5234
rogen	-5235
▁Next	-5236
▁None	-5237
▁Well	-5238
▁cand	-5239
▁gard	-5240
▁poem	-5241
▁prop	-5242
▁tail	-5243
▁wing	-5244
ategor	-5245
coming	-5246
ername	-5247
▁cache	-5248
▁leads	-5249
▁mouth	-5250
▁nutri	-5251
▁pasta	-5252
▁shift	-5253
▁split	-5254
▁tests	-5255
ulating	-5256
▁decent	-5257
▁finger	-5258
▁mother	-5259
▁pygame	-5260
▁reader	-5261
▁served	-5262
▁stores	-5263
▁compute	-5264
▁courses	-5265
▁imagine	-5266
▁kingdom	-5267
▁padding	-5268
▁simpler	-5269
▁machines	-5270
▁opinions	-5271
▁straight	-5272
▁teaspoon	-5273
▁beginning	-5274
▁conflicts	-5275
▁sensitive	-5276
▁atmosphere	-5277
▁constantly	-5278
▁creativity	-5279
▁ultimately	-5280
▁institutions	-5281
ति	-5282
सा	-5283
arp	-5284
cal	-5285
dri	-5286
lin	-5287
sal	-5288
▁__	-5289
abel	-5290
erse	-5291
free	-5292
orch	-5293
▁Lim	-5294
▁Pri	-5295
▁Uni	-5296
▁Whe	-5297
▁arm	-5298
▁die	-5299
▁pig	-5300
▁pun	-5301
▁vit	-5302
acles	-5303
ernel	-5304
house	-5305
itate	-5306
uster	-5307
vious	-5308
▁Iron	-5309
▁JSON	-5310
▁cats	-5311
▁diam	-5312
▁pict	-5313
▁shot	-5314
▁vict	-5315
essage	-5316
number	-5317
▁Maybe	-5318
▁clock	-5319
▁crops	-5320
▁molec	-5321
▁plays	-5322
▁reply	-5323
▁rolls	-5324
▁teams	-5325
ections	-5326
igation	-5327
issions	-5328
ralized	-5329
ynomial	-5330
▁Christ	-5331
▁Commun	-5332
▁helped	-5333
▁occurs	-5334
▁prices	-5335
▁territ	-5336
cosystem	-5337
▁Because	-5338
▁conduct	-5339
▁nothing	-5340
▁reviews	-5341
▁Learning	-5342
▁accepted	-5343
▁consists	-5344
▁displays	-5345
▁evaluate	-5346
▁fighting	-5347
▁handling	-5348
▁indicate	-5349
▁parallel	-5350
▁awareness	-5351
▁frequency	-5352
▁lifestyle	-5353
▁movements	-5354
▁reactions	-5355
▁realistic	-5356
▁equivalent	-5357
▁resistance	-5358
'(	-5359
.)	-5360
CP	-5361
बर	-5362
षा	-5363
▁)	-5364
cus	-5365
▁IN	-5366
▁hi	-5367
ague	-5368
ancy	-5369
cond	-5370
ktop	-5371
orus	-5372
rest	-5373
▁Jan	-5374
▁fro	-5375
▁gar	-5376
▁tox	-5377
WIDTH	-5378
idate	-5379
uming	-5380
▁Main	-5381
▁More	-5382
▁cars	-5383
▁crim	-5384
▁cups	-5385
▁felt	-5386
▁neut	-5387
▁poly	-5388
▁rely	-5389
▁rent	-5390
▁reps	-5391
▁tall	-5392
▁tech	-5393
▁वर्ष	-5394
Button	-5395
abetes	-5396
direct	-5397
icated	-5398
uation	-5399
▁China	-5400
▁South	-5401
▁birds	-5402
▁birth	-5403
▁colon	-5404
▁empty	-5405
▁exhib	-5406
▁genre	-5407
▁guess	-5408
▁loved	-5409
▁pizza	-5410
▁round	-5411
▁tight	-5412
anguage	-5413
powered	-5414
process	-5415
▁advert	-5416
▁assets	-5417
▁breaks	-5418
▁broken	-5419
▁coding	-5420
▁cooked	-5421
▁excess	-5422
▁giving	-5423
▁harder	-5424
▁strict	-5425
ensional	-5426
▁Austral	-5427
▁decline	-5428
▁degrees	-5429
▁failure	-5430
▁impacts	-5431
▁morning	-5432
▁turning	-5433
▁walking	-5434
▁Japanese	-5435
▁accident	-5436
▁bacteria	-5437
▁balanced	-5438
▁combined	-5439
▁modified	-5440
▁observed	-5441
▁sentient	-5442
▁sunlight	-5443
▁triangle	-5444
▁Implement	-5445
▁ecosystem	-5446
▁investing	-5447
▁molecules	-5448
▁Revolution	-5449
▁containing	-5450
▁polynomial	-5451
▁weaknesses	-5452
▁necessarily	-5453
▁corresponding	-5454
An	-5455
cm	-5456
ती	-5457
वि	-5458
से	-5459
URL	-5460
amm	-5461
cou	-5462
iam	-5463
ret	-5464
ugh	-5465
न्द	-5466
▁er	-5467
▁fo	-5468
▁ic	-5469
▁पर	-5470
▁हि	-5471
haps	-5472
loat	-5473
obby	-5474
pace	-5475
rics	-5476
uate	-5477
▁"""	-5478
▁Ang	-5479
▁dra	-5480
▁hat	-5481
▁obj	-5482
0000,	-5483
attle	-5484
perty	-5485
title	-5486
▁Find	-5487
▁Play	-5488
▁adds	-5489
▁cele	-5490
▁held	-5491
▁jump	-5492
▁meat	-5493
▁pawn	-5494
▁road	-5495
▁scan	-5496
▁suff	-5497
▁Exper	-5498
▁banks	-5499
▁earli	-5500
▁moist	-5501
▁ocean	-5502
▁perce	-5503
▁thous	-5504
▁tomat	-5505
ategory	-5506
elihood	-5507
espread	-5508
▁George	-5509
▁baking	-5510
▁differ	-5511
▁editor	-5512
▁immedi	-5513
▁insect	-5514
▁integr	-5515
▁serves	-5516
▁summar	-5517
▁upload	-5518
password	-5519
▁helping	-5520
▁ongoing	-5521
▁squared	-5522
Exception	-5523
▁circumst	-5524
▁exciting	-5525
▁minimize	-5526
▁suggests	-5527
▁vertical	-5528
▁obstacles	-5529
▁widespread	-5530
▁constraints	-5531
▁lightweight	-5532
▁predictions	-5533
▁experiencing	-5534
▁increasingly	-5535
1:	-5536
NA	-5537
We	-5538
},	-5539
ले	-5540
▁!	-5541
▁;	-5542
▁q	-5543
[0]	-5544
api	-5545
mut	-5546
ros	-5547
unc	-5548
uum	-5549
vis	-5550
ारा	-5551
Data	-5552
hand	-5553
lets	-5554
oday	-5555
open	-5556
▁---	-5557
▁Run	-5558
▁Sur	-5559
▁dro	-5560
▁lon	-5561
▁mal	-5562
▁rat	-5563
▁raw	-5564
▁voc	-5565
▁विश	-5566
State	-5567
child	-5568
ellow	-5569
etary	-5570
index	-5571
oviet	-5572
worth	-5573
ष्ट्र	-5574
▁Arch	-5575
▁Char	-5576
▁Plan	-5577
▁dial	-5578
▁none	-5579
▁poor	-5580
▁vill	-5581
likely	-5582
▁Array	-5583
▁Space	-5584
▁boost	-5585
▁diagn	-5586
▁fiber	-5587
▁glass	-5588
▁labor	-5589
▁woman	-5590
aborate	-5591
ryption	-5592
section	-5593
▁Mathem	-5594
▁couple	-5595
▁decide	-5596
▁defeat	-5597
▁depart	-5598
▁myster	-5599
▁robust	-5600
aspberry	-5601
inations	-5602
▁Further	-5603
▁engines	-5604
▁focuses	-5605
▁parties	-5606
▁	-5607
e	-5608
t	-5609
a	-5610
o	-5611
i	-5612
n	-5613
s	-5614
r	-5615
l	-5616
h	-5617
d	-5618
c	-5619
u	-5620
m	-5621
p	-5622
f	-5623
g	-5624
y	-5625
w	-5626
b	-5627
.	-5628
,	-5629
v	-5630
k	-5631
:	-5632
A	-5633
I	-5634
T	-5635
-	-5636
x	-5637
'	-5638
S	-5639
"	-5640
U	-5641
1	-5642
C	-5643
)	-5644
(	-5645
0	-5646
P	-5647
2	-5648
H	-5649
`	-5650
q	-5651
?	-5652
W	-5653
M	-5654
E	-5655
D	-5656
z	-5657
j	-5658
B	-5659
L	-5660
R	-5661
=	-5662
/	-5663
_	-5664
F	-5665
O	-5666
3	-5667
G	-5668
N	-5669
ा	-5670
5	-5671
*	-5672
4	-5673
क	-5674
Y	-5675
्	-5676
र	-5677
6	-5678
9	-5679
;	-5680
[	-5681
]	-5682
!	-5683
8	-5684
>	-5685
V	-5686
|	-5687
ि	-5688
#	-5689
J	-5690
7	-5691
<	-5692
न	-5693
स	-5694
े	-5695
{	-5696
}	-5697
म	-5698
K	-5699
ी	-5700
+	-5701
ह	-5702
त	-5703
य	-5704
ल	-5705
$	-5706
ं	-5707
व	-5708
\	-5709
प	-5710
Q	-5711
X	-5712
ज	-5713
ै	-5714
ु	-5715
द	-5716
ो	-5717
^	-5718
थ	-5719
ब	-5720
ग	-5721
▒	-5722
’	-5723
ट	-5724
Z	-5725
श	-5726
%	-5727
█	-5728
&	-5729
अ	-5730
ष	-5731
▓	-5732
भ	-5733
“	-5734
”	-5735
•	-5736
ड	-5737
ू	-5738
░	-5739
ध	-5740
